<unk>	0
▁n	-0
▁a	-1
▁m	-2
▁s	-3
▁w	-4
▁no	-5
▁b	-6
▁.	-7
▁k	-8
yɛ	-9
▁h	-10
▁d	-11
aa	-12
▁na	-13
▁sɛ	-14
▁wɔ	-15
an	-16
ye	-17
▁t	-18
ra	-19
▁ne	-20
en	-21
▁ɔ	-22
yi	-23
▁wo	-24
▁me	-25
re	-26
▁f	-27
▁an	-28
ma	-29
sa	-30
▁ɛ	-31
de	-32
▁mu	-33
▁yɛ	-34
▁so	-35
▁ho	-36
▁o	-37
rɛ	-38
▁bi	-39
▁p	-40
fo	-41
▁nn	-42
ri	-43
se	-44
ka	-45
▁e	-46
wa	-47
sɛ	-48
oa	-49
um	-50
na	-51
▁ad	-52
▁wɔn	-53
ro	-54
▁ka	-55
▁yi	-56
▁g	-57
ia	-58
su	-59
▁de	-60
so	-61
wu	-62
yerɛ	-63
ya	-64
im	-65
▁nk	-66
ie	-67
▁ab	-68
▁mo	-69
ɛn	-70
▁ak	-71
ɔn	-72
▁be	-73
▁?	-74
▁mm	-75
ii	-76
▁nt	-77
▁,	-78
in	-79
umi	-80
ena	-81
▁ma	-82
sam	-83
▁ah	-84
yin	-85
pa	-86
be	-87
samoa	-88
▁fo	-89
▁te	-90
▁kɔ	-91
ko	-92
▁hɔ	-93
▁ani	-94
te	-95
▁da	-96
ua	-97
yinaa	-98
iri	-99
bɛ	-100
▁nyinaa	-101
wɔ	-102
Sɛ	-103
om	-104
on	-105
▁kyerɛ	-106
Me	-107
▁saa	-108
ene	-109
wɛ	-110
▁bɛ	-111
▁ba	-112
▁'	-113
sɛm	-114
▁re	-115
pɛ	-116
▁mma	-117
we	-118
▁ye	-119
me	-120
▁af	-121
▁wu	-122
▁ase	-123
tumi	-124
▁se	-125
Asamoa	-126
▁ko	-127
rade	-128
▁awu	-129
kɔ	-130
bena	-131
di	-132
▁yɛn	-133
▁at	-134
am	-135
▁on	-136
▁bia	-137
▁si	-138
yan	-139
▁awurade	-140
▁i	-141
ne	-142
uu	-143
▁nni	-144
bi	-145
wan	-146
▁nea	-147
▁su	-148
▁r	-149
fa	-150
▁ara	-151
wo	-152
▁nh	-153
wuma	-154
si	-155
▁di	-156
▁bɔ	-157
▁gye	-158
▁biara	-159
bia	-160
▁pa	-161
▁bere	-162
deɛ	-163
foɔ	-164
▁baa	-165
pɔn	-166
▁ag	-167
▁to	-168
da	-169
▁ku	-170
▁wa	-171
▁asɛm	-172
ane	-173
ba	-174
Kwa	-175
▁ɛn	-176
yanko	-177
yankopɔn	-178
▁am	-179
biara	-180
▁nso	-181
▁mi	-182
▁ha	-183
▁sa	-184
▁deɛ	-185
▁l	-186
▁asa	-187
▁hu	-188
▁bo	-189
to	-190
▁y	-191
▁ɔh	-192
Asamoah	-193
▁mp	-194
eɛ	-195
▁mf	-196
Ná	-197
▁ni	-198
▁fi	-199
▁nti	-200
sra	-201
hu	-202
▁kyerɛɛ	-203
▁nan	-204
▁adwuma	-205
▁pɛ	-206
gye	-207
▁ɛyɛ	-208
▁fa	-209
▁maa	-210
▁pii	-211
▁nsa	-212
suw	-213
ru	-214
▁hwɛ	-215
▁A	-216
▁yiye	-217
▁ya	-218
yɛn	-219
ni	-220
▁akyi	-221
▁anim	-222
ku	-223
▁ɔn	-224
▁adu	-225
raa	-226
▁ano	-227
kwa	-228
bɔ	-229
hwɛ	-230
▁fie	-231
▁biri	-232
oma	-233
kyerɛ	-234
bea	-235
nu	-236
▁wɔa	-237
▁anka	-238
ɔne	-239
▁tumi	-240
▁aho	-241
▁kasa	-242
▁den	-243
ron	-244
ho	-245
▁asase	-246
Kwabena	-247
el	-248
rima	-249
fi	-250
▁mɛ	-251
▁en	-252
▁aba	-253
▁hwe	-254
yɛɛ	-255
▁tu	-256
wi	-257
▁adi	-258
▁ade	-259
samoah	-260
▁kwan	-261
▁foɔ	-262
nea	-263
▁du	-264
▁ayɛ	-265
▁anaa	-266
▁ra	-267
foro	-268
▁wɔde	-269
ere	-270
yina	-271
yia	-272
▁nka	-273
susuw	-274
▁ɛsɛ	-275
▁obi	-276
man	-277
sua	-278
▁ɔde	-279
▁onyankopɔn	-280
▁sika	-281
▁nku	-282
▁ɔbɛ	-283
▁nyɛ	-284
▁kɛ	-285
ti	-286
▁ti	-287
srael	-288
betumi	-289
▁ama	-290
▁israel	-291
▁kɔɔ	-292
▁tɔ	-293
ná	-294
▁bu	-295
▁firi	-296
▁ɔk	-297
wene	-298
▁nnipa	-299
▁as	-300
em	-301
▁nanso	-302
▁u	-303
▁Abena	-304
▁yɛɛ	-305
ren	-306
hyɛ	-307
ea	-308
ɔre	-309
▁bio	-310
▁bɛn	-311
▁nkyɛn	-312
▁ta	-313
▁mmɔ	-314
▁sɛnea	-315
Mi	-316
maa	-317
ini	-318
ta	-319
nim	-320
▁nsɛm	-321
▁Asamoah	-322
▁bɔne	-323
▁aso	-324
▁koraa	-325
do	-326
Min	-327
▁kra	-328
taa	-329
firi	-330
▁nyankopɔn	-331
▁do	-332
▁paa	-333
▁kwa	-334
▁ap	-335
▁aa	-336
▁kɛse	-337
▁ɔyɛ	-338
▁dɔ	-339
▁foforo	-340
▁soɔ	-341
▁din	-342
▁bɔɔ	-343
▁wobɛ	-344
▁sen	-345
▁mon	-346
ad	-347
▁nsu	-348
rɔ	-349
▁ɛwɔ	-350
tɔ	-351
▁nim	-352
▁woa	-353
▁nhoma	-354
▁nkɔ	-355
▁fii	-356
den	-357
Wɔ	-358
▁we	-359
▁abu	-360
▁mfo	-361
ɛm	-362
▁man	-363
▁min	-364
Na	-365
▁biribi	-366
▁ri	-367
mu	-368
▁aka	-369
▁mpa	-370
Wo	-371
▁dan	-372
▁kye	-373
▁ke	-374
▁gya	-375
▁hia	-376
ran	-377
▁dii	-378
Yɛ	-379
Bere	-380
mma	-381
row	-382
saa	-383
▁mede	-384
▁obiara	-385
▁akɔ	-386
▁daa	-387
▁kaa	-388
▁men	-389
ten	-390
▁asamoah	-391
▁gyina	-392
▁ankasa	-393
▁hyɛ	-394
▁kak	-395
▁eyi	-396
▁san	-397
▁adwene	-398
▁abo	-399
▁agya	-400
▁ten	-401
▁ada	-402
ien	-403
dan	-404
amfo	-405
▁gu	-406
▁kar	-407
barima	-408
▁ɔre	-409
▁boa	-410
▁dodo	-411
▁ren	-412
▁mfa	-413
▁nneɛ	-414
▁nkwa	-415
gya	-416
▁nneɛma	-417
▁nya	-418
▁sua	-419
▁kan	-420
▁fɛ	-421
▁kae	-422
▁aw	-423
▁afe	-424
▁dwuma	-425
▁yo	-426
▁ɔhene	-427
▁hye	-428
bere	-429
▁om	-430
siane	-431
▁ɛbɛ	-432
Kwaku	-433
▁ntɛm	-434
Ɛsɛ	-435
▁eɛ	-436
Ɛn	-437
▁po	-438
bu	-439
mfa	-440
▁mere	-441
fra	-442
▁twa	-443
▁ɔman	-444
▁fam	-445
▁wopɛ	-446
▁wɔbɛ	-447
▁biribiara	-448
Dɛn	-449
▁nokwa	-450
mi	-451
▁aman	-452
▁Asamoa	-453
kuu	-454
▁sɛm	-455
▁mmoa	-456
▁ɔka	-457
▁sie	-458
▁kyɛ	-459
▁sukuu	-460
Ma	-461
baa	-462
rɛɛ	-463
▁won	-464
▁papa	-465
▁akyerɛ	-466
Ɛyɛ	-467
kan	-468
▁nua	-469
ipa	-470
▁nna	-471
Mepɛ	-472
▁ɛnyɛ	-473
▁twe	-474
▁aduan	-475
▁ako	-476
▁kakra	-477
▁bea	-478
▁ro	-479
▁yu	-480
▁c	-481
▁sɛdeɛ	-482
▁nokware	-483
▁nnɛ	-484
srɛ	-485
mpɛ	-486
wom	-487
▁afiri	-488
adwo	-489
fe	-490
waa	-491
▁nu	-492
▁anadwo	-493
▁enti	-494
min	-495
▁ɛte	-496
▁meyɛ	-497
▁el	-498
▁nam	-499
iase	-500
▁bɛyɛ	-501
▁wie	-502
▁mmara	-503
▁nko	-504
▁anigye	-505
▁nnye	-506
▁hyɛɛ	-507
▁yesu	-508
▁hwehwɛ	-509
▁ato	-510
▁teɛ	-511
▁Kwabena	-512
▁hwee	-513
sie	-514
▁tee	-515
asamoah	-516
▁onipa	-517
▁ɛfiri	-518
▁mpo	-519
▁ɔwɔ	-520
▁efi	-521
▁tie	-522
Saa	-523
nam	-524
▁susuw	-525
▁B	-526
pɔ	-527
▁yuda	-528
▁biako	-529
▁mfe	-530
▁wode	-531
▁woyɛ	-532
▁dɛn	-533
too	-534
ese	-535
ree	-536
▁baako	-537
▁nkyerɛ	-538
bo	-539
▁akwan	-540
ani	-541
▁hene	-542
mm	-543
▁nne	-544
▁faa	-545
▁kuro	-546
▁taa	-547
▁sɔ	-548
▁too	-549
▁metumi	-550
▁nie	-551
Wu	-552
kwabena	-553
▁afi	-554
▁ansa	-555
aw	-556
▁wan	-557
▁kum	-558
▁tena	-559
▁sii	-560
▁ɛno	-561
▁baabi	-562
▁kron	-563
▁abɔ	-564
▁tra	-565
wid	-566
▁dawid	-567
▁betumi	-568
yansa	-569
▁hyia	-570
▁et	-571
kɔɔ	-572
tu	-573
▁mmɔden	-574
▁kyerɛw	-575
▁in	-576
▁akyiri	-577
▁he	-578
esei	-579
▁wubetumi	-580
▁gyee	-581
▁anan	-582
▁ɔbarima	-583
yaa	-584
▁adeɛ	-585
▁ɔno	-586
▁ahyɛ	-587
▁krataa	-588
▁moa	-589
kron	-590
▁ɛho	-591
▁sɛe	-592
▁mme	-593
▁mmu	-594
▁pon	-595
▁ɛh	-596
st	-597
sal	-598
▁ɔs	-599
▁ɔne	-600
won	-601
▁werɛ	-602
▁dua	-603
▁ɔte	-604
▁ntam	-605
▁afɔ	-606
dii	-607
▁afɔdeɛ	-608
▁fu	-609
▁kete	-610
▁wi	-611
▁ɔso	-612
▁wore	-613
▁pɛn	-614
▁wɔyɛ	-615
dɔ	-616
ade	-617
▁fe	-618
neɛ	-619
▁hunu	-620
▁pe	-621
▁ago	-622
yehyɛ	-623
▁wowɔ	-624
▁asafo	-625
▁ntumi	-626
nh	-627
▁la	-628
▁le	-629
▁edi	-630
▁atwa	-631
▁nnim	-632
▁firii	-633
boa	-634
▁nnan	-635
▁raa	-636
▁sɔre	-637
▁abena	-638
ienu	-639
▁kronkron	-640
▁ate	-641
▁efisɛ	-642
▁ahorow	-643
▁yeru	-644
▁0	-645
▁huu	-646
▁haw	-647
▁ia	-648
nan	-649
▁agye	-650
anom	-651
▁F	-652
▁afo	-653
▁mmarima	-654
salem	-655
▁yerusalem	-656
Ne	-657
dɛn	-658
▁wɔre	-659
▁abien	-660
▁nkutoo	-661
wɛn	-662
Eyi	-663
ɔpa	-664
ranse	-665
▁meka	-666
▁ati	-667
▁gua	-668
▁mose	-669
▁wɔwɔ	-670
▁ɛbɛyɛ	-671
fu	-672
sii	-673
▁nyansa	-674
nini	-675
twe	-676
▁awo	-677
▁abusua	-678
▁im	-679
▁abi	-680
kum	-681
▁yere	-682
▁nhyehyɛ	-683
▁awie	-684
nni	-685
▁yam	-686
▁anɔpa	-687
▁ɔkwan	-688
▁tɔɔ	-689
▁mmo	-690
▁som	-691
▁deda	-692
Misusuw	-693
he	-694
▁wom	-695
▁obe	-696
▁nsam	-697
▁frɛ	-698
rew	-699
ɛyɛ	-700
tɛ	-701
▁ɔhaw	-702
▁asu	-703
huu	-704
sraim	-705
ɔfoɔ	-706
▁osu	-707
▁tan	-708
▁misraim	-709
▁mfiri	-710
lo	-711
ston	-712
▁mepɛ	-713
▁mfom	-714
▁dedaw	-715
▁J	-716
▁dodow	-717
▁awia	-718
▁nkurɔ	-719
▁apon	-720
▁bisaa	-721
▁asi	-722
▁wɔka	-723
▁ogya	-724
▁mewɔ	-725
▁berɛ	-726
▁kyerɛkyerɛ	-727
▁emu	-728
ɛnna	-729
▁um	-730
▁afa	-731
▁pan	-732
enkan	-733
▁ɔkye	-734
▁nkon	-735
yam	-736
▁ng	-737
▁ee	-738
▁nye	-739
▁anya	-740
▁ns	-741
▁mmienu	-742
▁mfi	-743
▁mfomso	-744
▁ɔpɛ	-745
▁kwabena	-746
ɛsɛ	-747
▁yin	-748
▁ware	-749
▁baanu	-750
▁siesie	-751
hwe	-752
Nea	-753
mepɛ	-754
▁mpɛ	-755
▁tua	-756
▁H	-757
la	-758
▁wim	-759
▁suro	-760
no	-761
▁afɔre	-762
▁sra	-763
▁nhyehyɛe	-764
▁kuw	-765
▁tenten	-766
seɛ	-767
ulo	-768
▁soro	-769
le	-770
▁maame	-771
▁ru	-772
kye	-773
▁tia	-774
▁koro	-775
▁nom	-776
▁anom	-777
▁ɛtɔ	-778
▁wiase	-779
▁tew	-780
wie	-781
▁mfonini	-782
▁li	-783
▁ahoɔ	-784
▁die	-785
▁ahu	-786
▁brɛ	-787
▁bɛba	-788
▁odi	-789
▁akoma	-790
ke	-791
▁ɔkyena	-792
▁ahen	-793
▁agu	-794
▁guu	-795
ban	-796
▁duru	-797
▁nnamfo	-798
▁bepɔ	-799
▁oa	-800
▁kyi	-801
yare	-802
▁adaka	-803
▁ban	-804
wonwa	-805
▁mmom	-806
▁afu	-807
▁afei	-808
hene	-809
▁bisa	-810
nanso	-811
pɛn	-812
▁nta	-813
▁woka	-814
▁misusuw	-815
▁bae	-816
ris	-817
▁aboa	-818
▁aduon	-819
bɔɔ	-820
▁asom	-821
▁gyae	-822
dwo	-823
du	-824
Obiara	-825
▁sane	-826
po	-827
▁kurow	-828
fie	-829
▁rɛ	-830
aman	-831
▁Kwaku	-832
▁dwo	-833
▁nte	-834
▁ben	-835
ome	-836
▁tuu	-837
risto	-838
▁twɛn	-839
mmɔ	-840
yɛfo	-841
▁sɛn	-842
▁kristo	-843
▁nto	-844
▁tiri	-845
▁ɛre	-846
nhom	-847
▁yaa	-848
▁honhom	-849
▁pi	-850
▁ɔkɔ	-851
hunu	-852
▁E	-853
▁mpan	-854
▁wura	-855
▁israelfoɔ	-856
▁ran	-857
▁wɔte	-858
▁hyɛn	-859
▁nsuo	-860
▁adua	-861
▁mmaa	-862
mp	-863
▁nkurɔfo	-864
▁gi	-865
Ɛnyɛ	-866
▁hyi	-867
▁dwe	-868
▁adan	-869
ɔho	-870
▁atɔ	-871
▁yii	-872
▁(	-873
▁tɛ	-874
▁nhu	-875
▁tow	-876
▁apa	-877
▁fra	-878
▁Franse	-879
hia	-880
▁1	-881
▁wube	-882
▁ahe	-883
▁kenkan	-884
▁wɔan	-885
▁adamfo	-886
▁ahoɔden	-887
▁ree	-888
▁nipa	-889
▁rɔ	-890
▁!	-891
▁asɛ	-892
▁wɔf	-893
▁hi	-894
▁seɛ	-895
▁atifi	-896
irika	-897
▁keteke	-898
iriw	-899
▁nwo	-900
▁pɔ	-901
▁nkuro	-902
▁dw	-903
Sɛ́	-904
▁Bo	-905
enee	-906
▁han	-907
▁mogya	-908
kɛ	-909
ɔnten	-910
▁foro	-911
▁mmirika	-912
onyam	-913
uonyam	-914
li	-915
▁yaw	-916
ɛsa	-917
▁yare	-918
▁abiɛsa	-919
▁duu	-920
▁ɔbaa	-921
▁ane	-922
▁yɛbɛ	-923
▁agoru	-924
▁nhwi	-925
Mintumi	-926
▁nkonim	-927
▁aduane	-928
▁bɛka	-929
▁kɛseɛ	-930
▁abofra	-931
▁aseɛ	-932
▁nhyi	-933
waam	-934
▁mfra	-935
▁etwaam	-936
▁akyɛ	-937
Ɔde	-938
▁dɛ	-939
eyi	-940
▁mete	-941
nuu	-942
Yɛn	-943
▁owu	-944
mfo	-945
▁mɛyɛ	-946
▁ana	-947
▁ɛda	-948
▁mihu	-949
ɔso	-950
yesu	-951
nt	-952
▁frɛɛ	-953
Mɛ	-954
Minim	-955
▁wobe	-956
Ɔyɛ	-957
▁beb	-958
▁amanaman	-959
kwaku	-960
▁nwonwa	-961
▁nwoma	-962
▁ahan	-963
▁ahyia	-964
▁atwam	-965
▁mekɔ	-966
▁nnɔn	-967
▁yie	-968
▁nnom	-969
▁nnua	-970
▁ɔyɛɛ	-971
▁dwom	-972
▁abufu	-973
nye	-974
▁mene	-975
▁basa	-976
▁etwa	-977
inom	-978
▁mmua	-979
umu	-980
▁tebea	-981
tow	-982
▁rentumi	-983
▁seesei	-984
wɔn	-985
Ɛno	-986
▁yɛa	-987
pan	-988
▁amma	-989
Mere	-990
▁nnwom	-991
▁Boston	-992
▁aban	-993
▁sini	-994
▁ntoma	-995
▁ɔsoro	-996
▁ɛnsɛ	-997
ɛno	-998
▁ron	-999
▁adidi	-1000
▁atade	-1001
mmu	-1002
▁gyi	-1003
▁ɛnte	-1004
▁nnu	-1005
▁bɛma	-1006
Hena	-1007
▁nkoa	-1008
▁ɔdan	-1009
▁)	-1010
▁sim	-1011
▁bebree	-1012
▁obetumi	-1013
soɔ	-1014
▁asua	-1015
▁twaa	-1016
ware	-1017
▁awɔ	-1018
▁mmerɛ	-1019
Men	-1020
▁afoforo	-1021
▁dane	-1022
▁gyinae	-1023
▁C	-1024
hwerew	-1025
▁asɔre	-1026
▁2	-1027
▁agyan	-1028
▁mũ	-1029
▁ua	-1030
▁rekɔ	-1031
Ka	-1032
kaa	-1033
enti	-1034
▁mmere	-1035
tan	-1036
Mesrɛ	-1037
▁begye	-1038
Fa	-1039
▁mmi	-1040
▁kakraa	-1041
apan	-1042
tra	-1043
▁ɔdɔ	-1044
▁awiei	-1045
▁kɔkɔɔ	-1046
▁j	-1047
▁atoro	-1048
▁wobɛyɛ	-1049
▁nson	-1050
▁ɛma	-1051
ue	-1052
▁ɛso	-1053
Ye	-1054
Sɛn	-1055
▁kɛkɛ	-1056
▁nuanom	-1057
▁nsra	-1058
mon	-1059
▁asomdwo	-1060
▁aku	-1061
▁sam	-1062
▁ahem	-1063
▁saulo	-1064
nipa	-1065
▁aha	-1066
▁wunim	-1067
ga	-1068
Minnim	-1069
▁ɔp	-1070
nkum	-1071
Yɛsrɛ	-1072
fei	-1073
hyia	-1074
▁woɔ	-1075
▁wɔfrɛ	-1076
▁yei	-1077
Sɛnea	-1078
▁abra	-1079
kyi	-1080
ɛnyɛ	-1081
▁buu	-1082
▁ɛde	-1083
raman	-1084
▁ahɔho	-1085
awu	-1086
suo	-1087
Ɛhe	-1088
▁ga	-1089
▁wee	-1090
▁mmra	-1091
▁agua	-1092
▁apontow	-1093
wehwɛ	-1094
awurade	-1095
▁pɔn	-1096
▁ɔba	-1097
▁nhia	-1098
▁wadi	-1099
Mewɔ	-1100
▁gyidi	-1101
▁hwɛɛ	-1102
▁dwetɛ	-1103
▁sal	-1104
▁ɔbɔ	-1105
Kwasi	-1106
Mempɛ	-1107
▁ɔhye	-1108
obiara	-1109
esiane	-1110
▁"	-1111
▁bra	-1112
▁ahwɛ	-1113
▁yako	-1114
▁panyin	-1115
▁yɛde	-1116
twa	-1117
▁oo	-1118
duru	-1119
▁kɔe	-1120
▁kɔn	-1121
▁twi	-1122
Nnipa	-1123
▁mpae	-1124
misusuw	-1125
▁wen	-1126
▁sene	-1127
Se	-1128
▁ki	-1129
▁ahome	-1130
▁aye	-1131
afei	-1132
▁akoa	-1133
▁gyinabea	-1134
▁ɔbea	-1135
rɔn	-1136
▁bɛkɔ	-1137
sifo	-1138
▁aduru	-1139
kyia	-1140
▁ɔfa	-1141
▁atɛn	-1142
▁gyaa	-1143
bukyia	-1144
▁mmerɛw	-1145
▁afɔrebukyia	-1146
▁apam	-1147
▁ebia	-1148
▁anw	-1149
ria	-1150
wia	-1151
▁tuo	-1152
tɔɔ	-1153
▁En	-1154
ruwa	-1155
▁dɔm	-1156
▁ɔbo	-1157
▁bɔɔl	-1158
▁Japan	-1159
▁srɛ	-1160
▁nkɔmmɔ	-1161
▁ɔsɔfoɔ	-1162
▁didi	-1163
▁sum	-1164
▁hyiaa	-1165
▁nyaa	-1166
▁onni	-1167
▁aware	-1168
Esiane	-1169
Wubetumi	-1170
▁ngu	-1171
▁adagye	-1172
▁aduonu	-1173
hn	-1174
▁Ho	-1175
sram	-1176
▁eye	-1177
▁hyew	-1178
▁mpem	-1179
▁tele	-1180
hwa	-1181
san	-1182
▁ɔkaa	-1183
▁minim	-1184
▁abɛ	-1185
▁adɔ	-1186
▁atu	-1187
▁T	-1188
Man	-1189
▁tiaa	-1190
▁yan	-1191
▁ɔko	-1192
▁koma	-1193
▁adagyew	-1194
▁dwiriw	-1195
▁S	-1196
▁nnwan	-1197
kora	-1198
mɛ	-1199
▁wui	-1200
▁aduasa	-1201
An	-1202
Mede	-1203
▁mmofra	-1204
▁wɔne	-1205
▁awɔw	-1206
▁siga	-1207
▁kraman	-1208
mme	-1209
▁wun	-1210
▁kura	-1211
▁kyere	-1212
▁atemmu	-1213
▁minnim	-1214
▁wote	-1215
▁yakob	-1216
Migye	-1217
▁agyina	-1218
iribiara	-1219
▁agyanom	-1220
lah	-1221
ɔma	-1222
bɛyɛ	-1223
▁awe	-1224
▁lewi	-1225
▁anaasɛ	-1226
▁nee	-1227
▁ɛse	-1228
▁nuabea	-1229
▁mframa	-1230
Seesei	-1231
▁nsɛ	-1232
▁hwan	-1233
▁reba	-1234
kyerɛfo	-1235
▁dapɛn	-1236
▁nnansa	-1237
▁ɛhɔ	-1238
▁kora	-1239
▁kɔfe	-1240
fon	-1241
▁mmɛ	-1242
hyɛn	-1243
▁reyɛ	-1244
▁wɔmfa	-1245
▁dum	-1246
▁akwanhyia	-1247
dua	-1248
mere	-1249
▁fuw	-1250
▁kuo	-1251
▁nsi	-1252
▁ɔma	-1253
▁anyɛ	-1254
mo	-1255
▁K	-1256
▁owia	-1257
▁mmuae	-1258
kuo	-1259
▁ngo	-1260
▁nno	-1261
▁wudi	-1262
▁wuhu	-1263
▁anwum	-1264
ohn	-1265
Ɛte	-1266
▁Aku	-1267
▁mehu	-1268
nnipa	-1269
▁adɛn	-1270
▁ɔse	-1271
▁kwaku	-1272
korabea	-1273
ɔde	-1274
▁ie	-1275
▁esi	-1276
▁sia	-1277
▁ɛne	-1278
▁brɛɛ	-1279
▁asuafo	-1280
▁od	-1281
▁pono	-1282
▁ɔf	-1283
Minni	-1284
▁asiane	-1285
▁kuruwa	-1286
▁dwumadi	-1287
▁ge	-1288
ɛnsa	-1289
sia	-1290
▁ebe	-1291
▁ɛfa	-1292
▁telefon	-1293
▁ntomadan	-1294
▁hui	-1295
▁mmiɛnsa	-1296
▁kai	-1297
▁mpɛn	-1298
▁aaron	-1299
▁ɔsram	-1300
▁D	-1301
iria	-1302
▁nkra	-1303
ben	-1304
▁asɔfoɔ	-1305
▁boɔ	-1306
▁ntɔ	-1307
▁ɔda	-1308
▁mfeɛ	-1309
▁soma	-1310
▁guare	-1311
▁tenaa	-1312
▁mfaso	-1313
▁mayɛ	-1314
▁nkye	-1315
▁amane	-1316
▁sere	-1317
▁wene	-1318
▁ayare	-1319
▁mpaboa	-1320
▁iɛ	-1321
rimaa	-1322
▁anida	-1323
▁mintumi	-1324
▁akɛ	-1325
▁bɔs	-1326
▁mɛma	-1327
▁dea	-1328
▁wokɔ	-1329
▁Holah	-1330
▁siane	-1331
▁’	-1332
wane	-1333
▁woo	-1334
nn	-1335
▁toa	-1336
▁mmusua	-1337
▁nhyiam	-1338
ase	-1339
kasa	-1340
▁hyeɛ	-1341
lis	-1342
tie	-1343
omma	-1344
resi	-1345
▁mmea	-1346
▁ɔhwɛ	-1347
▁ɔbɛyɛ	-1348
▁yɛwɔ	-1349
▁akyire	-1350
▁sigare	-1351
▁kyerɛkyerɛfo	-1352
daa	-1353
▁benya	-1354
Ɛho	-1355
▁ayi	-1356
▁mobɛ	-1357
son	-1358
▁sak	-1359
▁nhwiren	-1360
▁dɔn	-1361
▁home	-1362
▁sotɔɔ	-1363
some	-1364
▁v	-1365
▁nnya	-1366
▁tete	-1367
▁atamfo	-1368
ɛhe	-1369
yifoɔ	-1370
▁afuw	-1371
▁kosi	-1372
▁traa	-1373
temaa	-1374
▁John	-1375
sɛnea	-1376
▁wodi	-1377
▁nsusuw	-1378
▁yerɛ	-1379
kwan	-1380
▁hann	-1381
▁mama	-1382
▁wiei	-1383
▁nkran	-1384
▁nsraban	-1385
▁wimhyɛn	-1386
Wɔde	-1387
▁Y	-1388
▁yen	-1389
▁meren	-1390
▁mpena	-1391
▁simma	-1392
▁mpataa	-1393
gi	-1394
▁ɛkɔ	-1395
▁ɔren	-1396
▁akwantu	-1397
▁gyinaa	-1398
kyɛ	-1399
▁ɔha	-1400
▁anni	-1401
▁midi	-1402
▁filis	-1403
▁hunuu	-1404
▁salom	-1405
▁ahemfo	-1406
▁/	-1407
pɛɛ	-1408
twie	-1409
▁ɔmfa	-1410
▁ontumi	-1411
▁trɛ	-1412
pɛɛpɛ	-1413
▁bobe	-1414
▁salomo	-1415
▁pɛpɛɛpɛ	-1416
▁sigaret	-1417
▁nuabarima	-1418
▁wɔkɔ	-1419
▁barima	-1420
Hwɛ	-1421
bel	-1422
bɔne	-1423
▁yɛyɛ	-1424
▁momfa	-1425
▁awofo	-1426
▁afiase	-1427
mmea	-1428
▁nkyerɛkyerɛ	-1429
▁pae	-1430
▁mɛkɔ	-1431
▁yeinom	-1432
▁baabiara	-1433
fɛ	-1434
▁kyin	-1435
▁serew	-1436
▁esiane	-1437
nom	-1438
▁0.	-1439
▁meda	-1440
mintumi	-1441
▁yebetumi	-1442
omm	-1443
▁nke	-1444
▁rɛɛ	-1445
bɔnten	-1446
▁tirim	-1447
▁nnyina	-1448
▁anuonyam	-1449
inta	-1450
▁tii	-1451
▁tene	-1452
▁babel	-1453
Ade	-1454
▁nnɔ	-1455
▁awerɛ	-1456
ruu	-1457
▁mfu	-1458
Po	-1459
rao	-1460
▁bue	-1461
▁kyɛw	-1462
▁woda	-1463
▁ɔmaa	-1464
▁farao	-1465
oatemaa	-1466
▁adidibea	-1467
▁esii	-1468
▁ahinta	-1469
bɛn	-1470
woo	-1471
▁ɛba	-1472
▁nnum	-1473
giresi	-1474
▁tenabea	-1475
ɔfo	-1476
Meyɛ	-1477
▁adwa	-1478
▁nkyɛ	-1479
▁ɔkraman	-1480
tena	-1481
▁anidaso	-1482
▁son	-1483
▁kɔsi	-1484
▁agyapa	-1485
▁atra	-1486
▁ɔpon	-1487
▁onnim	-1488
▁Boatemaa	-1489
ham	-1490
yii	-1491
▁bedi	-1492
▁boaa	-1493
▁nhyɛ	-1494
▁yera	-1495
nɛ	-1496
▁kane	-1497
▁turo	-1498
▁woan	-1499
▁antumi	-1500
▁boston	-1501
sea	-1502
▁akye	-1503
▁abraham	-1504
ano	-1505
nie	-1506
forɔ	-1507
▁ahon	-1508
▁nante	-1509
▁ahennie	-1510
Wɔn	-1511
Mete	-1512
▁korɔ	-1513
▁dwane	-1514
▁dɔɔso	-1515
▁asubɔnten	-1516
▁nnɔnhwerew	-1517
Mma	-1518
▁fɔ	-1519
▁akwa	-1520
▁anum	-1521
▁ntea	-1522
▁wɔfa	-1523
▁menyɛ	-1524
▁ananmu	-1525
▁lo	-1526
▁monn	-1527
▁nhwɛ	-1528
▁nifa	-1529
▁foforɔ	-1530
▁ayaresa	-1531
▁abarimaa	-1532
▁ohu	-1533
▁animuonyam	-1534
▁kunu	-1535
▁yebe	-1536
Ebia	-1537
ntɛm	-1538
▁asie	-1539
▁onim	-1540
▁wɔren	-1541
▁akyɛde	-1542
numu	-1543
▁buaa	-1544
▁baasa	-1545
▁adesua	-1546
▁ntade	-1547
▁lisifo	-1548
▁I	-1549
fii	-1550
▁ce	-1551
mesrɛ	-1552
▁fitaa	-1553
▁momma	-1554
▁nnoɔma	-1555
▁ɔkyerɛ	-1556
Ɔwɔ	-1557
▁bɛtɔ	-1558
▁bepɔw	-1559
▁yudafo	-1560
pe	-1561
tifoɔ	-1562
▁paano	-1563
▁ketewa	-1564
▁filistifoɔ	-1565
▁tɔn	-1566
▁wɔtwe	-1567
mmarima	-1568
▁nimdeɛ	-1569
▁lewifoɔ	-1570
sef	-1571
▁anu	-1572
▁sɛɛ	-1573
▁ɛpo	-1574
▁ɔyare	-1575
▁basafa	-1576
▁yosef	-1577
▁Engiresi	-1578
▁ene	-1579
▁bosome	-1580
▁asomdwoeɛ	-1581
▁nw	-1582
▁abe	-1583
▁minni	-1584
▁anyame	-1585
tro	-1586
hena	-1587
▁:	-1588
tire	-1589
kyiri	-1590
▁aboɔ	-1591
▁twam	-1592
▁aduonum	-1593
▁sisi	-1594
▁yɛre	-1595
minim	-1596
▁nkaeɛ	-1597
▁paanoo	-1598
duruyɛfo	-1599
▁nsusuwii	-1600
▁ntɛmntɛm	-1601
▁ɔhyɛ	-1602
▁ɔnyɛ	-1603
▁nkrantɛ	-1604
▁is	-1605
▁fɛw	-1606
▁ofi	-1607
▁wira	-1608
▁dodoɔ	-1609
▁ɔfiri	-1610
▁abɔnten	-1611
▁ii	-1612
mpren	-1613
▁woma	-1614
▁mmepɔ	-1615
tua	-1616
kame	-1617
▁boro	-1618
▁mode	-1619
▁franse	-1620
▁akyirikyiri	-1621
▁ɛto	-1622
▁asekyerɛ	-1623
Su	-1624
hyɛɛ	-1625
▁isa	-1626
▁pɔw	-1627
▁ɔdi	-1628
teɛ	-1629
On	-1630
gu	-1631
nen	-1632
▁bua	-1633
▁wayɛ	-1634
Meda	-1635
▁ɛka	-1636
▁bɛbɔ	-1637
▁ɛren	-1638
▁ɔhyeɛ	-1639
▁adanse	-1640
kia	-1641
yu	-1642
▁ntu	-1643
▁pam	-1644
▁koto	-1645
▁ntoa	-1646
ek	-1647
gua	-1648
▁ini	-1649
Ɛbɛyɛ	-1650
▁komm	-1651
Nsu	-1652
rika	-1653
▁nse	-1654
benya	-1655
tia	-1656
▁ebetumi	-1657
▁oduruyɛfo	-1658
Da	-1659
▁suo	-1660
▁sakre	-1661
▁ɔbɛba	-1662
pɔnkɔ	-1663
▁apan	-1664
▁honam	-1665
▁wunni	-1666
▁mmɔbɔ	-1667
▁-	-1668
▁5	-1669
mede	-1670
▁bom	-1671
▁pɛɛ	-1672
▁ɔkwa	-1673
▁rimaa	-1674
▁ɛkyerɛ	-1675
die	-1676
seɛnam	-1677
▁yosua	-1678
▁ɔdefo	-1679
▁hokwan	-1680
▁mpanim	-1681
Ɛnsɛ	-1682
▁tam	-1683
▁beae	-1684
▁wɔbɔ	-1685
▁ɛdeɛn	-1686
▁awerɛho	-1687
Ɛkame	-1688
▁asɛe	-1689
kyeree	-1690
▁ɛrekɔ	-1691
▁3	-1692
wen	-1693
▁bon	-1694
Mihuu	-1695
▁apue	-1696
▁nana	-1697
▁susu	-1698
kyerɛw	-1699
▁twerɛ	-1700
▁apɔnkɔ	-1701
▁ahɔhodan	-1702
▁fua	-1703
▁ɛdi	-1704
minnim	-1705
▁foforow	-1706
▁yeho	-1707
▁asetra	-1708
▁tenenee	-1709
ɔyɛ	-1710
▁mɛka	-1711
▁binom	-1712
rempren	-1713
lea	-1714
▁es	-1715
▁go	-1716
ɔnko	-1717
mempɛ	-1718
pɔmma	-1719
umuyɛ	-1720
▁ankɔ	-1721
▁moyɛ	-1722
▁sɔhwɛ	-1723
▁ɛbɛba	-1724
▁amumuyɛ	-1725
▁abusuakuo	-1726
▁apem	-1727
▁besi	-1728
▁mempɛ	-1729
▁ahintasɛm	-1730
▁horo	-1731
▁safe	-1732
▁ɛnna	-1733
▁yɔnko	-1734
▁em	-1735
▁er	-1736
▁ampa	-1737
▁babea	-1738
Won	-1739
win	-1740
mmaa	-1741
▁wia	-1742
▁ɔden	-1743
▁wohwɛ	-1744
▁wii	-1745
▁redi	-1746
▁sesa	-1747
▁nkasa	-1748
▁wuo	-1749
▁bɛto	-1750
▁ɛyɛɛ	-1751
▁paulo	-1752
▁ɛserɛ	-1753
▁gyaw	-1754
▁nwini	-1755
▁ayaresabea	-1756
▁ɔkyerɛkyerɛfo	-1757
asɛm	-1758
▁yor	-1759
▁ɔkae	-1760
▁wompɛ	-1761
▁wugye	-1762
Wususuw	-1763
hye	-1764
▁obu	-1765
▁wiee	-1766
▁woayɛ	-1767
▁asɔredan	-1768
▁efie	-1769
▁ɔmpɛ	-1770
▁asɛmpa	-1771
▁hyehyɛ	-1772
▁kunkum	-1773
▁mmammaa	-1774
brɛ	-1775
▁bag	-1776
▁fɛfɛ	-1777
▁sram	-1778
▁Kwasi	-1779
▁faako	-1780
▁mpoano	-1781
▁nhyira	-1782
▁eli	-1783
▁yoa	-1784
▁hena	-1785
▁moab	-1786
▁apono	-1787
▁agyapadeɛ	-1788
▁wɛn	-1789
neɛma	-1790
▁amfa	-1791
▁ɔkɔɔ	-1792
▁akasa	-1793
▁nnwuma	-1794
doɔ	-1795
huru	-1796
▁ɔnam	-1797
▁woadi	-1798
▁wobɛka	-1799
▁yɛe	-1800
▁nkrataa	-1801
kra	-1802
▁mpren	-1803
Obi	-1804
dɔm	-1805
woda	-1806
radeɛ	-1807
▁atia	-1808
▁nkɔm	-1809
▁ntaa	-1810
▁anibere	-1811
Mfa	-1812
lia	-1813
stra	-1814
Ɔyɛɛ	-1815
▁sono	-1816
nunkum	-1817
stralia	-1818
▁P	-1819
▁TV	-1820
misa	-1821
▁ɔbɛma	-1822
▁kyeree	-1823
▁yordan	-1824
No	-1825
▁9	-1826
▁G	-1827
▁dae	-1828
▁ɔsa	-1829
▁ɔto	-1830
renee	-1831
▁ahum	-1832
▁moan	-1833
▁momm	-1834
▁ogye	-1835
▁abufuo	-1836
▁ã	-1837
▁afie	-1838
▁baeɛ	-1839
▁nsɛn	-1840
▁rebɔ	-1841
▁nnwon	-1842
▁ahodoɔ	-1843
▁mprempren	-1844
▁z	-1845
efi	-1846
wadeɛ	-1847
▁guan	-1848
▁pere	-1849
▁kɔsii	-1850
ono	-1851
ɔwɔ	-1852
fusu	-1853
wɔde	-1854
Kwame	-1855
▁ehia	-1856
▁anomu	-1857
▁ɔpa	-1858
▁ntwe	-1859
▁ɛnam	-1860
▁denne	-1861
▁ɔbɛka	-1862
▁mitumi	-1863
▁odii	-1864
▁onya	-1865
▁monyɛ	-1866
hwam	-1867
mewɔ	-1868
▁ɔta	-1869
umfoɔ	-1870
▁ntadeɛ	-1871
▁nufusu	-1872
▁ɔbɔɔ	-1873
Nneɛma	-1874
▁kamfo	-1875
▁wususuw	-1876
ɛte	-1877
▁pue	-1878
▁sanku	-1879
▁abufuw	-1880
▁ahohuru	-1881
▁00	-1882
boro	-1883
▁hoa	-1884
Abena	-1885
▁akon	-1886
▁ofie	-1887
▁mpanyin	-1888
▁ok	-1889
▁ohuu	-1890
▁onii	-1891
▁mihuu	-1892
▁wɔfiri	-1893
▁ankyerɛ	-1894
▁nipadua	-1895
dom	-1896
uta	-1897
▁ere	-1898
▁ome	-1899
tenaa	-1900
Biribiara	-1901
▁dwene	-1902
▁enkan	-1903
▁nkogu	-1904
▁ahyɛdeɛ	-1905
horo	-1906
▁mun	-1907
adwene	-1908
adwuma	-1909
▁babaa	-1910
▁hina	-1911
▁wɔayɛ	-1912
▁anantwie	-1913
Wun	-1914
▁tom	-1915
▁ahia	-1916
▁sare	-1917
▁yɛfo	-1918
▁mehwɛ	-1919
▁wɔnyɛ	-1920
▁ɛnneɛ	-1921
▁dɔnhwerew	-1922
obi	-1923
▁fã	-1924
ntum	-1925
▁bet	-1926
▁amon	-1927
▁gyei	-1928
▁tuntum	-1929
▁ason	-1930
▁sɛee	-1931
▁ɔrekɔ	-1932
mputa	-1933
romma	-1934
▁apueeɛ	-1935
▁hua	-1936
▁maka	-1937
yinnye	-1938
▁akɛse	-1939
▁obedi	-1940
▁wonni	-1941
▁adwumayɛ	-1942
▁mmapɔmma	-1943
Abɔ	-1944
▁pem	-1945
▁duro	-1946
▁kɔkɔ	-1947
seesei	-1948
▁aniwa	-1949
▁amanneɛ	-1950
fee	-1951
▁ɛm	-1952
▁dɔla	-1953
▁mebɔ	-1954
▁merika	-1955
▁asomdwoe	-1956
▁benyamin	-1957
hane	-1958
▁wam	-1959
▁madi	-1960
▁akron	-1961
▁ɔbɛkɔ	-1962
men	-1963
▁wobɛpɛ	-1964
▁babarima	-1965
Mpɛn	-1966
▁pia	-1967
▁adwe	-1968
▁pefee	-1969
▁wɔyɛɛ	-1970
▁bɛboro	-1971
▁kɔmputa	-1972
▁anwummere	-1973
eawa	-1974
▁nsɔ	-1975
migye	-1976
▁ɔfaa	-1977
▁ɔtoo	-1978
▁akoko	-1979
▁hyiae	-1980
▁yansa	-1981
▁abeawa	-1982
onyankopɔn	-1983
▁kronkronbea	-1984
ɔno	-1985
▁elia	-1986
▁medi	-1987
▁abere	-1988
▁ronya	-1989
▁akatua	-1990
biribiara	-1991
hi	-1992
Aba	-1993
Wowɔ	-1994
gyina	-1995
▁yona	-1996
▁ɔdii	-1997
▁ayɛyɛ	-1998
▁nhomakorabea	-1999
hɔ	-2000
tene	-2001
▁ata	-2002
▁sea	-2003
▁see	-2004
▁sei	-2005
▁sɔɔ	-2006
▁wɔt	-2007
▁adom	-2008
▁akosi	-2009
▁asɔfo	-2010
▁menkɔ	-2011
▁nantew	-2012
Wa	-2013
▁atua	-2014
▁mese	-2015
▁Dwoda	-2016
▁yɛnkɔ	-2017
▁yohane	-2018
toa	-2019
▁ot	-2020
▁amm	-2021
▁nwu	-2022
▁mfoɔ	-2023
▁ɔnom	-2024
hwehwɛ	-2025
▁akɔsi	-2026
▁bɛhyɛ	-2027
▁minya	-2028
▁nsase	-2029
▁merekɔ	-2030
eki	-2031
▁noa	-2032
▁ɔsɛ	-2033
nhyia	-2034
▁mena	-2035
▁wɔpɛ	-2036
▁keeki	-2037
▁kyinii	-2038
▁nnomaa	-2039
▁ut	-2040
yifo	-2041
▁dun	-2042
▁mmrɛ	-2043
▁mprɛ	-2044
▁osua	-2045
▁panin	-2046
kyerɛmma	-2047
▁O	-2048
nso	-2049
▁soa	-2050
fraim	-2051
▁mpɔn	-2052
▁yɛne	-2053
kyerɛn	-2054
▁efraim	-2055
▁nsoromma	-2056
Nah	-2057
▁ll	-2058
▁ono	-2059
▁ɛhe	-2060
▁awoɔ	-2061
▁ntwa	-2062
▁wama	-2063
▁ɔkasa	-2064
▁ahenni	-2065
▁nnebɔne	-2066
▁ehu	-2067
▁neɛ	-2068
▁ayam	-2069
▁rɔfo	-2070
▁petro	-2071
▁sekan	-2072
▁somaa	-2073
▁asɛmmisa	-2074
basa	-2075
fide	-2076
▁kuu	-2077
▁kasae	-2078
▁manya	-2079
▁waree	-2080
▁ɛfata	-2081
▁nkurɔfoɔ	-2082
▁asafohene	-2083
▁mfirinhyia	-2084
sɔ	-2085
toso	-2086
▁dom	-2087
▁defo	-2088
▁ɛhaw	-2089
▁ayɛyɛdeɛ	-2090
▁ustralia	-2091
aan	-2092
nɔne	-2093
raafo	-2094
tiriw	-2095
▁ntama	-2096
▁mmaran	-2097
▁yɛmmea	-2098
▁ahotoso	-2099
▁amannɔne	-2100
▁odiyifoɔ	-2101
▁mmammarima	-2102
▁sukyerɛmma	-2103
▁ɔnkɔ	-2104
▁asodi	-2105
▁atena	-2106
▁kurom	-2107
▁asefoɔ	-2108
▁mununkum	-2109
▁nsɛnkyerɛn	-2110
▁fom	-2111
▁fon	-2112
▁ɔtɔ	-2113
▁more	-2114
▁ofii	-2115
▁sion	-2116
▁afahyɛ	-2117
▁kanaan	-2118
▁afifide	-2119
mom	-2120
▁kyɛfa	-2121
▁mfrafra	-2122
kae	-2123
tee	-2124
▁uu	-2125
▁mfɛn	-2126
▁wobɛkɔ	-2127
Ɛtɔ	-2128
▁ahi	-2129
▁kɔm	-2130
▁tɔe	-2131
mienu	-2132
▁asia	-2133
▁mɔne	-2134
▁otumi	-2135
▁nnwonto	-2136
▁ntoatoa	-2137
▁akyinnye	-2138
▁basabasa	-2139
▁sikakorabea	-2140
▁toɔ	-2141
▁ɛwom	-2142
▁kɔbere	-2143
▁nhwehwɛ	-2144
▁dummienu	-2145
▁mfrafraeɛ	-2146
▁:3	-2147
▁nyi	-2148
▁bɛsi	-2149
▁iase	-2150
▁wɔnn	-2151
▁benkum	-2152
▁mpomma	-2153
▁rekasa	-2154
boam	-2155
▁nha	-2156
▁yehu	-2157
▁adane	-2158
▁mente	-2159
▁nhyia	-2160
▁woakɔ	-2161
▁wɔnam	-2162
▁wɔwoo	-2163
▁woreyɛ	-2164
▁akyiwadeɛ	-2165
▁mpanimfoɔ	-2166
imfo	-2167
▁nkum	-2168
▁yɛan	-2169
▁aduaba	-2170
▁wubehu	-2171
hyi	-2172
ebia	-2173
▁heb	-2174
▁akum	-2175
▁ntra	-2176
▁duruu	-2177
▁ɔhɔho	-2178
▁ɔtare	-2179
▁titiriw	-2180
▁kata	-2181
▁fuwii	-2182
▁wɔbɔɔ	-2183
▁wɔnni	-2184
▁anuanom	-2185
amm	-2186
bon	-2187
woa	-2188
▁ar	-2189
▁rebɛ	-2190
▁ɛdan	-2191
▁suafo	-2192
▁asiria	-2193
▁woreka	-2194
▁mmaranimfo	-2195
aba	-2196
hoa	-2197
mia	-2198
▁lah	-2199
kyere	-2200
▁adum	-2201
▁yoab	-2202
▁ɔtaa	-2203
▁woahu	-2204
▁hwehwɛɛ	-2205
▁adiyifoɔ	-2206
uel	-2207
sɔre	-2208
efisɛ	-2209
▁nsia	-2210
▁afotu	-2211
▁mprɛn	-2212
▁wɔadi	-2213
▁manase	-2214
▁ahwehwɛ	-2215
▁ahyiaeɛ	-2216
▁asraafo	-2217
▁atitire	-2218
▁ef	-2219
▁owi	-2220
▁enye	-2221
▁tire	-2222
▁samuel	-2223
▁nteaseɛnam	-2224
nkwa	-2225
soro	-2226
▁ɔho	-2227
▁anhu	-2228
▁kosii	-2229
▁minhu	-2230
▁sisii	-2231
▁woren	-2232
▁wubenya	-2233
▁yeremia	-2234
▁difo	-2235
▁wɔso	-2236
▁migye	-2237
▁mmɔbo	-2238
▁wɔkɔɔ	-2239
▁anafoɔ	-2240
▁ria	-2241
▁nant	-2242
▁akɛseɛ	-2243
▁hohoro	-2244
▁trenee	-2245
lead	-2246
▁rim	-2247
aadaa	-2248
▁wɔdi	-2249
▁ɔkɔm	-2250
▁annye	-2251
▁bɛkasa	-2252
▁gilead	-2253
▁nkyene	-2254
▁ahantan	-2255
anka	-2256
▁akan	-2257
▁wuwu	-2258
▁memfa	-2259
▁awerɛhow	-2260
woyɛ	-2261
▁ɔhyɛɛ	-2262
▁nnaadaa	-2263
kuw	-2264
▁tim	-2265
▁uro	-2266
maria	-2267
▁mifi	-2268
▁siria	-2269
▁wɔaka	-2270
▁ɔreyɛ	-2271
dea	-2272
▁edom	-2273
▁mɛba	-2274
▁ɛbaa	-2275
▁wokae	-2276
▁asan	-2277
▁isak	-2278
▁yɛkɔ	-2279
▁ɔtwe	-2280
▁kɔmaa	-2281
▁ayeforo	-2282
berɛ	-2283
▁ayu	-2284
hyiaa	-2285
▁wufi	-2286
▁afena	-2287
▁menka	-2288
▁meyɛɛ	-2289
▁twene	-2290
wennini	-2291
▁mereka	-2292
▁nsakra	-2293
▁anwonwa	-2294
ɛho	-2295
▁oni	-2296
onipa	-2297
▁ahwe	-2298
▁hwie	-2299
▁reka	-2300
▁wono	-2301
▁abɔne	-2302
▁monkɔ	-2303
▁asuo	-2304
▁baal	-2305
▁mema	-2306
ranteɛ	-2307
▁mekae	-2308
▁obehu	-2309
▁ɔreka	-2310
mum	-2311
▁mpɔ	-2312
momma	-2313
▁afra	-2314
▁ante	-2315
▁hese	-2316
▁ɔsan	-2317
▁ennen	-2318
▁woso	-2319
▁akokɔ	-2320
▁rehwɛ	-2321
▁yɛnyɛ	-2322
▁mekyerɛ	-2323
▁ame	-2324
▁mpe	-2325
▁rem	-2326
▁mmaako	-2327
▁nananom	-2328
▁kyerɛwsɛm	-2329
▁rew	-2330
▁row	-2331
▁asaa	-2332
▁nkae	-2333
▁ɔmma	-2334
▁asoma	-2335
▁awufo	-2336
▁nkoto	-2337
▁renyɛ	-2338
▁sorɔn	-2339
▁hesekia	-2340
▁samaria	-2341
▁akokoduru	-2342
▁nnebɔneyɛfo	-2343
korɛ	-2344
saman	-2345
▁kumm	-2346
▁wuma	-2347
▁bɔhyɛ	-2348
▁metee	-2349
▁mereyɛ	-2350
asa	-2351
pono	-2352
▁prɛ	-2353
amfoɔ	-2354
▁dumi	-2355
▁mahu	-2356
▁ɔtee	-2357
▁mmɔne	-2358
▁asaman	-2359
▁bonhwa	-2360
▁nkuran	-2361
▁nokorɛ	-2362
▁yonatan	-2363
eni	-2364
wɔa	-2365
▁nii	-2366
yinam	-2367
▁borɔ	-2368
▁dinn	-2369
▁esum	-2370
▁homa	-2371
▁siee	-2372
▁tiee	-2373
▁didii	-2374
▁aduanan	-2375
Biri	-2376
meyɛ	-2377
▁waa	-2378
▁ahab	-2379
▁wɔto	-2380
▁ɔnni	-2381
▁memaa	-2382
▁raman	-2383
▁atamfoɔ	-2384
▁ɔkwasea	-2385
▁gui	-2386
▁lon	-2387
▁bena	-2388
▁nteɛ	-2389
▁ɛpono	-2390
▁ɔsomaa	-2391
▁amanehunu	-2392
▁8	-2393
ɛda	-2394
▁nwi	-2395
▁oyi	-2396
▁abɛn	-2397
▁mube	-2398
▁mɛfa	-2399
▁ɛnne	-2400
▁menya	-2401
▁wɔmma	-2402
▁abɔfra	-2403
▁dumien	-2404
▁sradeɛ	-2405
merɛ	-2406
yira	-2407
▁ruu	-2408
▁abrɛ	-2409
▁dwoo	-2410
▁hama	-2411
▁waka	-2412
▁akata	-2413
▁hyira	-2414
▁kanea	-2415
▁mprenu	-2416
▁ntease	-2417
▁L	-2418
▁x	-2419
sane	-2420
▁mia	-2421
▁afrɛ	-2422
▁nguan	-2423
▁pɔnkɔ	-2424
▁ɛbɛma	-2425
▁asiesie	-2426
▁anwonwade	-2427
▁mom	-2428
▁tum	-2429
▁adwo	-2430
▁wɔse	-2431
▁ɛbɛn	-2432
▁danee	-2433
▁kumaa	-2434
▁nnuru	-2435
▁wobetumi	-2436
yo	-2437
ɛnsɛ	-2438
▁ser	-2439
▁ɔhu	-2440
ammɔn	-2441
▁dwen	-2442
▁yɛka	-2443
▁ɛnnɛ	-2444
▁anigyeɛ	-2445
▁atemmuo	-2446
▁nkwasea	-2447
▁sorɔnso	-2448
▁kyekyere	-2449
▁ntoatoasoɔ	-2450
twɛn	-2451
▁ram	-2452
wɔtwe	-2453
▁ahye	-2454
▁toto	-2455
▁ayera	-2456
▁mmɔho	-2457
▁wonim	-2458
▁wɔkaa	-2459
▁anammɔn	-2460
▁anwummerɛ	-2461
▁amo	-2462
▁resi	-2463
▁asene	-2464
▁atiri	-2465
▁gyata	-2466
▁korɔn	-2467
▁ntoto	-2468
▁wiram	-2469
▁wɔhyɛ	-2470
▁wɔbɛyɛ	-2471
ɛnnɛ	-2472
▁pin	-2473
▁fran	-2474
▁yina	-2475
eneeni	-2476
winini	-2477
▁ahoni	-2478
▁dadeɛ	-2479
▁mpata	-2480
▁bɛtena	-2481
▁daakye	-2482
▁homeda	-2483
▁ɔbaako	-2484
▁akronkron	-2485
frɛ	-2486
firim	-2487
▁ɔyɛe	-2488
▁ahuhu	-2489
▁ntena	-2490
▁prɛko	-2491
▁nneyɛɛ	-2492
▁nnommum	-2493
▁rɔn	-2494
▁ɛwo	-2495
▁atew	-2496
▁dabi	-2497
▁kyee	-2498
▁ɛkɔm	-2499
kenkan	-2500
▁mesrɛ	-2501
▁yenni	-2502
▁aduhwam	-2503
▁anyinam	-2504
▁kunkumm	-2505
▁nkwagye	-2506
▁nokwasɛm	-2507
▁don	-2508
▁hwa	-2509
▁daeɛ	-2510
▁mman	-2511
▁srɛɛ	-2512
▁suaa	-2513
▁wobɔ	-2514
▁yero	-2515
▁wɔbaa	-2516
▁yadeɛ	-2517
▁yerɛn	-2518
▁hwɛfoɔ	-2519
▁ntaban	-2520
▁6	-2521
▁pu	-2522
teaa	-2523
▁ira	-2524
▁okum	-2525
▁ɛmfa	-2526
▁Kwame	-2527
▁abisa	-2528
▁mprɛnsa	-2529
▁yudahene	-2530
tae	-2531
▁bel	-2532
▁dia	-2533
▁mee	-2534
▁funu	-2535
▁huru	-2536
▁mowɔ	-2537
▁wɔmm	-2538
▁wamma	-2539
▁wɔato	-2540
▁ɛreba	-2541
▁nsateaa	-2542
▁N	-2543
soa	-2544
▁Ne	-2545
mufo	-2546
mɔne	-2547
▁kal	-2548
kɛseɛ	-2549
▁adwi	-2550
▁anee	-2551
▁bobɔ	-2552
▁enee	-2553
▁mmɛn	-2554
▁pene	-2555
▁adɔeɛ	-2556
▁wanka	-2557
▁wɔnkɔ	-2558
▁anomaa	-2559
▁nantwie	-2560
▁mmusuakuo	-2561
▁4	-2562
▁dam	-2563
yimfo	-2564
yinom	-2565
▁nini	-2566
▁ɛdɔm	-2567
▁abɔfo	-2568
▁monhwɛ	-2569
▁amanamanmufo	-2570
dwoo	-2571
gyae	-2572
salom	-2573
▁bɛdi	-2574
▁kyia	-2575
▁makɔ	-2576
▁anhyɛ	-2577
▁bɛdii	-2578
▁twitwa	-2579
▁absalom	-2580
▁dwoodwoo	-2581
▁mpanyimfo	-2582
▁apo	-2583
renom	-2584
▁ahanu	-2585
▁mpofirim	-2586
▁akyerɛkyerɛfo	-2587
▁R	-2588
nsu	-2589
▁bem	-2590
▁sin	-2591
duruu	-2592
▁enni	-2593
▁wone	-2594
▁yudafoɔ	-2595
▁akronkronneɛ	-2596
meka	-2597
▁pra	-2598
bɛnto	-2599
▁befi	-2600
▁nebu	-2601
▁ɔwoo	-2602
▁atɔeɛ	-2603
▁botae	-2604
▁monni	-2605
▁wɔdii	-2606
▁ɔbɔne	-2607
▁abɔdeɛ	-2608
▁ɛsiane	-2609
▁yerenom	-2610
▁ɔhwehwɛ	-2611
▁ei	-2612
adɛn	-2613
ɛfiri	-2614
▁kɔka	-2615
▁ɔkra	-2616
▁akraman	-2617
wɔka	-2618
▁mae	-2619
▁ris	-2620
▁bubu	-2621
▁nyan	-2622
▁sime	-2623
▁ɔsɔfo	-2624
▁ababaa	-2625
▁ahonya	-2626
▁yeroboam	-2627
haw	-2628
▁Me	-2629
dane	-2630
▁lia	-2631
binom	-2632
▁ɛteɛ	-2633
▁abɔde	-2634
▁nneyɛ	-2635
▁woaka	-2636
▁wɔfaa	-2637
robɛnto	-2638
▁wɔrekɔ	-2639
▁mmɔborɔ	-2640
▁agyenkwa	-2641
▁atemmudeɛ	-2642
yerɛn	-2643
▁yɛte	-2644
▁ɔboa	-2645
yeinom	-2646
▁mabrɛ	-2647
▁ɔfasuo	-2648
nya	-2649
▁wɛ	-2650
meda	-2651
ɛwom	-2652
▁ena	-2653
▁rae	-2654
▁ahod	-2655
▁twee	-2656
▁ɔseɛ	-2657
▁mekɔɔ	-2658
▁nnɔba	-2659
▁mpaebɔ	-2660
kɔm	-2661
ɔka	-2662
mfoɔ	-2663
▁akwaa	-2664
▁yɛmfa	-2665
▁afɔrebɔ	-2666
▁adwumayɛfo	-2667
▁ẽ	-2668
hyeɛ	-2669
▁rema	-2670
▁rante	-2671
▁wɔayi	-2672
▁wɔtɔn	-2673
▁nneyɛe	-2674
▁wɔatwa	-2675
▁nhunumu	-2676
▁asamando	-2677
gyee	-2678
nnua	-2679
sɛpɛ	-2680
▁hel	-2681
▁mfɛ	-2682
▁nyae	-2683
▁tade	-2684
▁toro	-2685
▁yɛpɛ	-2686
siesie	-2687
▁sifoɔ	-2688
▁afasuo	-2689
▁asomfo	-2690
▁nnompe	-2691
▁yehosa	-2692
▁ahosɛpɛ	-2693
▁ketewaa	-2694
sau	-2695
yuda	-2696
▁esau	-2697
▁mika	-2698
▁elisa	-2699
▁nyame	-2700
▁ɔfrɛɛ	-2701
▁eyinom	-2702
ha	-2703
sɔn	-2704
▁gyaee	-2705
▁mahyɛ	-2706
▁abakan	-2707
▁bɛfiri	-2708
▁adiyifo	-2709
▁abufuhyeɛ	-2710
▁õ	-2711
nna	-2712
▁ger	-2713
▁nyin	-2714
▁otwa	-2715
▁kyire	-2716
▁nkata	-2717
▁awieeɛ	-2718
▁abɔnefoɔ	-2719
▁7	-2720
sar	-2721
▁Ma	-2722
▁mɔ	-2723
wetɛ	-2724
▁awɛ	-2725
▁fan	-2726
▁gad	-2727
rante	-2728
▁gali	-2729
▁ɔsom	-2730
▁akane	-2731
▁amena	-2732
▁nnwetɛ	-2733
▁nwɔtwe	-2734
▁wonnim	-2735
▁adanseɛ	-2736
▁mmeranteɛ	-2737
▁Ɔ	-2738
▁kon	-2739
ɛbɛyɛ	-2740
▁were	-2741
▁wɔkan	-2742
▁amamfo	-2743
▁atadeɛ	-2744
▁montie	-2745
▁amonfoɔ	-2746
▁nnanson	-2747
▁wɔakyerɛw	-2748
iti	-2749
nwa	-2750
▁siw	-2751
▁ɔpe	-2752
▁fira	-2753
▁wɔtu	-2754
▁amfiri	-2755
▁ayamye	-2756
▁ogyina	-2757
▁abannwa	-2758
▁asɛmmɔne	-2759
▁nnwetɛbena	-2760
nes	-2761
yei	-2762
funu	-2763
▁ɔsɔ	-2764
▁seba	-2765
▁wobu	-2766
▁akutu	-2767
▁aniwu	-2768
▁maria	-2769
▁sɔree	-2770
▁wɔhwɛ	-2771
▁wɔmaa	-2772
▁adagya	-2773
▁ahohia	-2774
▁asaawa	-2775
▁ebinom	-2776
▁yɛbɛyɛ	-2777
er	-2778
kad	-2779
▁ɔt	-2780
▁adɔe	-2781
▁nsen	-2782
▁tutu	-2783
▁wofi	-2784
kadnes	-2785
rɔmmea	-2786
▁hanan	-2787
▁mɛsan	-2788
▁wonya	-2789
▁kaldea	-2790
▁twetia	-2791
▁wobedi	-2792
▁wobɛma	-2793
kadnessar	-2794
▁nebukadnessar	-2795
▁sorɔnsorɔmmea	-2796
ɔson	-2797
▁amu	-2798
▁bal	-2799
▁tea	-2800
▁tro	-2801
▁ɛko	-2802
enten	-2803
hunuu	-2804
tiase	-2805
▁keka	-2806
▁nsan	-2807
▁owui	-2808
▁ɔnka	-2809
▁mekaa	-2810
▁suban	-2811
▁hyerɛn	-2812
▁nkuraa	-2813
▁aduɔson	-2814
▁nsɛnkyerɛnneɛ	-2815
imf	-2816
tin	-2817
▁num	-2818
▁ohi	-2819
▁ose	-2820
▁akɔn	-2821
▁ayuo	-2822
▁popo	-2823
▁wabɔ	-2824
▁yimi	-2825
imfini	-2826
▁nwunu	-2827
▁samoa	-2828
▁wɔabɔ	-2829
▁abɔfoɔ	-2830
▁ahiafo	-2831
▁ohiani	-2832
▁wɔbɛka	-2833
▁siesiee	-2834
▁ɛrenkyɛ	-2835
▁mfitiase	-2836
▁nnyinasoɔ	-2837
ana	-2838
▁abaw	-2839
▁asɛn	-2840
▁keru	-2841
▁moka	-2842
▁munn	-2843
▁hwɛfo	-2844
▁ruben	-2845
rentumi	-2846
▁baanan	-2847
▁bobesa	-2848
▁nkurow	-2849
▁yafunu	-2850
▁ahohiahia	-2851
anu	-2852
wii	-2853
ɛhɔ	-2854
hora	-2855
▁hat	-2856
▁pɛe	-2857
▁sui	-2858
▁ton	-2859
▁ɔbu	-2860
▁mate	-2861
▁ɔbon	-2862
▁bobɔɔ	-2863
▁mpoma	-2864
▁wɔtaa	-2865
▁abrabɔ	-2866
▁ahyɛde	-2867
▁ahohora	-2868
▁asɛnnua	-2869
▁wɔhunuu	-2870
▁ɔbonsam	-2871
▁abansoro	-2872
▁nnipadɔm	-2873
rae	-2874
tew	-2875
▁nɔ	-2876
▁kɔeɛ	-2877
adamfo	-2878
▁nnome	-2879
▁wogye	-2880
▁woyɛɛ	-2881
▁asotwe	-2882
▁ahwɛfoɔ	-2883
▁mfunumu	-2884
▁teaseɛnam	-2885
▁asiriahene	-2886
fat	-2887
tel	-2888
bisa	-2889
▁nia	-2890
twerɛ	-2891
▁aduo	-2892
▁atwe	-2893
▁nsuro	-2894
▁mmabaa	-2895
▁yehoia	-2896
▁yehosafat	-2897
▁U	-2898
▁ita	-2899
▁tar	-2900
sɛdeɛ	-2901
▁poma	-2902
▁rima	-2903
▁wohu	-2904
▁wagye	-2905
▁ɔbɔfo	-2906
▁merebɛ	-2907
▁afunumu	-2908
iel	-2909
nka	-2910
ɔbɛ	-2911
▁koo	-2912
▁nwe	-2913
▁soo	-2914
▁abaa	-2915
▁atuu	-2916
▁nnyɛ	-2917
▁wɔma	-2918
▁ɔyii	-2919
▁bɛhwɛ	-2920
▁wodii	-2921
▁asadeɛ	-2922
▁ɔhɔhoɔ	-2923
▁ahemfie	-2924
▁ɔbɔnefoɔ	-2925
▁hem	-2926
▁nin	-2927
▁mote	-2928
▁roma	-2929
▁tini	-2930
ankasa	-2931
▁abubu	-2932
▁wɔtoo	-2933
ɔbarima	-2934
▁akyere	-2935
▁daniel	-2936
▁ɔbotan	-2937
▁galilea	-2938
▁aberante	-2939
▁wɔatwerɛ	-2940
▁kaldeafoɔ	-2941
▁kyerɛkyerɛɛ	-2942
faa	-2943
▁yea	-2944
ɛnneɛ	-2945
▁mayi	-2946
▁serɛ	-2947
▁ɔgye	-2948
▁ahuri	-2949
▁bɔfoɔ	-2950
▁horow	-2951
▁ntwɛn	-2952
▁ɔbɛfa	-2953
▁asomafo	-2954
00	-2955
ah	-2956
tam	-2957
▁Na	-2958
▁buo	-2959
▁ebi	-2960
▁amum	-2961
▁buee	-2962
▁mpia	-2963
▁mɛbɔ	-2964
▁ntia	-2965
▁sraa	-2966
▁dɔteɛ	-2967
▁frama	-2968
▁monka	-2969
▁sakra	-2970
▁wɔtee	-2971
▁merema	-2972
▁animtia	-2973
▁nɛ	-2974
▁ɛha	-2975
rifoɔ	-2976
▁bɛda	-2977
▁deɛn	-2978
▁wɔba	-2979
▁betel	-2980
▁boase	-2981
▁kɔbea	-2982
▁mpaeɛ	-2983
▁odwan	-2984
▁ɔyɛeɛ	-2985
▁nantwi	-2986
▁amorifoɔ	-2987
koa	-2988
oni	-2989
pem	-2990
easa	-2991
enaa	-2992
siam	-2993
▁apɛ	-2994
▁lek	-2995
▁oti	-2996
▁bɛfa	-2997
▁medɔ	-2998
▁ntew	-2999
▁ɛmaa	-3000
▁ahwie	-3001
▁akorɔ	-3002
▁esiam	-3003
▁fasuo	-3004
▁mehyɛ	-3005
▁ɔsɔre	-3006
▁atease	-3007
▁denden	-3008
▁eleasa	-3009
▁mmusuo	-3010
▁obegye	-3011
entensoɔ	-3012
▁makyerɛ	-3013
▁misraimfoɔ	-3014
▁ntentensoɔ	-3015
tom	-3016
wee	-3017
boaa	-3018
▁asɔ	-3019
▁ɔfo	-3020
suafo	-3021
▁adie	-3022
▁nhye	-3023
▁bereɛ	-3024
▁difoɔ	-3025
▁wɔhye	-3026
▁afenaa	-3027
▁akofoɔ	-3028
▁hebron	-3029
▁wɔtete	-3030
▁aduosia	-3031
▁otumfoɔ	-3032
▁wɔkyeree	-3033
▁mpanimfie	-3034
ob	-3035
mmo	-3036
tinn	-3037
▁awi	-3038
▁nkaa	-3039
▁tane	-3040
▁bɛkaa	-3041
▁kɔbɔɔ	-3042
anuanom	-3043
▁daadaa	-3044
▁mmorɔn	-3045
▁asetena	-3046
▁pintinn	-3047
teneneeni	-3048
▁ĩ	-3049
dwe	-3050
som	-3051
ɔden	-3052
▁him	-3053
▁iri	-3054
▁koɔ	-3055
▁umi	-3056
▁wɔm	-3057
petro	-3058
▁abia	-3059
▁abom	-3060
▁hwɛe	-3061
▁ruwa	-3062
▁tuaa	-3063
▁ɔsɛe	-3064
▁nhunu	-3065
▁wɔkae	-3066
▁kɛseyɛ	-3067
▁ɔtenaa	-3068
▁ɛkorɔn	-3069
▁ahengua	-3070
▁kɔtenaa	-3071
▁odiyifo	-3072
▁ɔteneneeni	-3073
▁nsɛnkyerɛnne	-3074
Si	-3075
kem	-3076
suu	-3077
ter	-3078
nwii	-3079
onto	-3080
rado	-3081
▁has	-3082
▁rɔm	-3083
bisaa	-3084
▁afuo	-3085
▁kaeɛ	-3086
▁nnam	-3087
▁yeri	-3088
▁abura	-3089
▁asefo	-3090
▁kyiri	-3091
▁menam	-3092
▁sekem	-3093
▁somfo	-3094
▁tefoɔ	-3095
▁boasetɔ	-3096
ee	-3097
nɔ	-3098
don	-3099
doo	-3100
nee	-3101
akyi	-3102
difo	-3103
hwan	-3104
koam	-3105
▁dab	-3106
▁lam	-3107
banon	-3108
▁abua	-3109
▁hare	-3110
▁ntie	-3111
▁safo	-3112
▁wodɔ	-3113
▁nkron	-3114
▁wonam	-3115
▁yesua	-3116
▁ɛberɛ	-3117
▁amrado	-3118
▁kokoam	-3119
▁midian	-3120
▁mmasoɔ	-3121
▁ntonto	-3122
▁obenya	-3123
▁ɔhunuu	-3124
▁lebanon	-3125
▁mfimfini	-3126
▁M	-3127
abu	-3128
ete	-3129
kai	-3130
wea	-3131
asase	-3132
raefo	-3133
▁forɔ	-3134
▁huhu	-3135
▁yɛeɛ	-3136
▁ɛhyɛ	-3137
▁ahene	-3138
▁ahunu	-3139
▁anana	-3140
▁hyɛne	-3141
▁mfutu	-3142
▁nkane	-3143
▁petee	-3144
▁tamfo	-3145
▁yenim	-3146
▁yɛayɛ	-3147
▁wɔahyɛ	-3148
▁mmarato	-3149
▁́	-3150
siee	-3151
▁bar	-3152
▁mar	-3153
▁tio	-3154
ɔhene	-3155
▁ahun	-3156
▁hyee	-3157
▁meso	-3158
▁ahyɛn	-3159
▁kusuu	-3160
▁mommɔ	-3161
▁mpema	-3162
▁teɛɛm	-3163
▁woama	-3164
▁wɔsom	-3165
▁ɛtene	-3166
kyerɛma	-3167
▁abodoo	-3168
▁ahanum	-3169
▁mommma	-3170
▁frankaa	-3171
▁wɔahunu	-3172
▁akoradeɛ	-3173
▁yankopɔn	-3174
▁adwennini	-3175
▁kyekyeree	-3176
▁oh	-3177
elek	-3178
leam	-3179
wiem	-3180
▁atɛ	-3181
▁dee	-3182
▁hwi	-3183
▁oku	-3184
emmaa	-3185
▁abim	-3186
▁bata	-3187
▁hada	-3188
▁ɛsom	-3189
▁dwiri	-3190
▁nnwin	-3191
▁ohoni	-3192
▁wɔama	-3193
▁ɔforo	-3194
▁bileam	-3195
▁wɔagye	-3196
▁wɔbɛma	-3197
▁abimelek	-3198
▁odwennini	-3199
▁kia	-3200
▁non	-3201
▁ɛbɔ	-3202
▁buae	-3203
▁reho	-3204
▁reko	-3205
▁wayi	-3206
▁anwea	-3207
▁hwere	-3208
▁ɔsane	-3209
▁akodeɛ	-3210
▁nuabaa	-3211
▁furaefo	-3212
▁nnɔbaeɛ	-3213
▁agyapade	-3214
▁ponkɛseɛ	-3215
▁nantwinini	-3216
▁W	-3217
boo	-3218
▁mot	-3219
▁mɛn	-3220
▁onh	-3221
tompo	-3222
▁koko	-3223
▁rane	-3224
▁sani	-3225
▁sede	-3226
lisifo	-3227
▁abusu	-3228
▁nkɔsi	-3229
▁rekyi	-3230
▁remma	-3231
▁sukɔm	-3232
▁wɔafa	-3233
▁aboson	-3234
▁mehyɛɛ	-3235
▁onyame	-3236
▁ahansia	-3237
▁nkontompo	-3238
ner	-3239
tɛn	-3240
amfa	-3241
anim	-3242
▁dwa	-3243
▁gyeɛ	-3244
▁hane	-3245
▁mabɔ	-3246
▁abner	-3247
▁ahasa	-3248
▁atorɔ	-3249
▁hwene	-3250
▁nsusu	-3251
▁atwene	-3252
▁wɔsiee	-3253
▁meremfa	-3254
▁siriafoɔ	-3255
▁kanaanfoɔ	-3256
bim	-3257
▁un	-3258
oboo	-3259
onoo	-3260
▁mor	-3261
pɔnna	-3262
▁dome	-3263
▁kafo	-3264
▁meba	-3265
▁owuo	-3266
▁rade	-3267
▁sara	-3268
▁yira	-3269
▁moayɛ	-3270
▁yɛren	-3271
▁dennen	-3272
▁tumfoɔ	-3273
▁abooboo	-3274
▁fononoo	-3275
▁mehunuu	-3276
▁kɔkyeree	-3277
moa	-3278
▁Po	-3279
dekai	-3280
▁tiro	-3281
▁ɛhye	-3282
▁mefrɛ	-3283
▁nwera	-3284
▁simon	-3285
▁tofoɔ	-3286
▁wokum	-3287
▁bɛsane	-3288
▁mefiri	-3289
▁wɔbɛfa	-3290
▁wɔrebɛ	-3291
▁hyehyɛɛ	-3292
▁kerubim	-3293
▁mordekai	-3294
▁tɛkyerɛma	-3295
duu	-3296
saia	-3297
wobɛ	-3298
▁moma	-3299
▁yiri	-3300
nhyira	-3301
▁ewiem	-3302
▁fapem	-3303
▁memma	-3304
▁nsane	-3305
▁sofoɔ	-3306
▁ɛhyeɛ	-3307
▁ɛsono	-3308
▁abupɛn	-3309
▁mahunu	-3310
▁mmepɔw	-3311
▁yeriko	-3312
▁yesaia	-3313
▁bɛkyerɛ	-3314
▁mmorɔno	-3315
▁israelfo	-3316
awo	-3317
mas	-3318
mono	-3319
▁bɔn	-3320
▁hes	-3321
▁nue	-3322
▁rea	-3323
masko	-3324
▁behu	-3325
▁hiob	-3326
▁ogua	-3327
▁pira	-3328
▁ɔsii	-3329
▁abram	-3330
▁anant	-3331
▁moren	-3332
▁munim	-3333
▁wosow	-3334
▁ɔrebɛ	-3335
▁adɔɔso	-3336
▁akɔnnɔ	-3337
▁ahwiesa	-3338
▁boaboaa	-3339
▁damasko	-3340
▁kɔduruu	-3341
▁mfuturo	-3342
▁wobegye	-3343
▁ɔhemmaa	-3344
ce	-3345
karia	-3346
▁mpen	-3347
▁nane	-3348
▁nufo	-3349
▁aburo	-3350
▁amapa	-3351
▁kwaeɛ	-3352
▁mmisa	-3353
▁tifoɔ	-3354
▁wanya	-3355
▁ɔsɛeɛ	-3356
▁boaboa	-3357
▁tiatia	-3358
▁ɔbɔfoɔ	-3359
▁sakaria	-3360
▁ahurisie	-3361
▁nnwinneɛ	-3362
▁nnɔmmarima	-3363
0.	-3364
hem	-3365
▁Ka	-3366
▁or	-3367
▁ham	-3368
▁rot	-3369
▁fari	-3370
▁huam	-3371
▁kari	-3372
▁kɔma	-3373
▁mopɛ	-3374
▁nsie	-3375
▁osuo	-3376
▁pore	-3377
▁ɔboɔ	-3378
▁basan	-3379
▁nkete	-3380
▁renka	-3381
▁ahyira	-3382
▁hoahoa	-3383
▁wonnye	-3384
▁sedekia	-3385
▁farisifo	-3386
▁nkotodwe	-3387
ll	-3388
naa	-3389
nua	-3390
mael	-3391
sika	-3392
▁kab	-3393
▁pea	-3394
▁amen	-3395
▁kyɛɛ	-3396
▁nnkɔ	-3397
▁sera	-3398
▁totɔ	-3399
bonhwa	-3400
▁anyin	-3401
▁ester	-3402
▁menim	-3403
▁wɔnte	-3404
▁ismael	-3405
▁otitire	-3406
▁nnipakuw	-3407
▁nnwanten	-3408
▁subonhwa	-3409
as	-3410
boɔ	-3411
dok	-3412
gyaa	-3413
kura	-3414
▁mis	-3415
▁bɛte	-3416
▁ɔbrɛ	-3417
▁akora	-3418
▁apete	-3419
▁haman	-3420
▁kataa	-3421
▁nturo	-3422
▁sadok	-3423
▁tania	-3424
▁ahanan	-3425
▁asodie	-3426
▁nkanea	-3427
▁wɔsɔre	-3428
▁ahyehyɛ	-3429
▁awɛmfoɔ	-3430
▁nkrante	-3431
▁tentene	-3432
▁awerɛhoɔ	-3433
▁ɔbabarima	-3434
▁mmɔborɔhunu	-3435
dwa	-3436
hel	-3437
▁yuu	-3438
lehem	-3439
▁bala	-3440
▁kwaa	-3441
▁mɛto	-3442
▁nkan	-3443
▁aforo	-3444
▁anwan	-3445
▁apiti	-3446
▁atene	-3447
▁badwa	-3448
▁dunum	-3449
▁fidie	-3450
▁meyii	-3451
▁tadua	-3452
▁wedeɛ	-3453
reneefo	-3454
▁nnedua	-3455
▁wumfoɔ	-3456
yansafoɔ	-3457
▁gyidifo	-3458
▁moahunu	-3459
▁betlehem	-3460
▁atreneefo	-3461
▁babelhene	-3462
▁anyansafoɔ	-3463
▁israelhene	-3464
aho	-3465
lek	-3466
▁ai	-3467
mene	-3468
rode	-3469
▁sai	-3470
▁mane	-3471
▁seru	-3472
▁wiri	-3473
▁wɔbu	-3474
▁laban	-3475
▁nafoɔ	-3476
▁bɛdane	-3477
▁herode	-3478
▁hyiraa	-3479
▁mmɔfra	-3480
▁nkamfo	-3481
▁obisaa	-3482
▁nkyekyɛ	-3483
▁ananafoɔ	-3484
fua	-3485
nyɛ	-3486
pɔw	-3487
tuu	-3488
perɛ	-3489
▁obo	-3490
▁ret	-3491
▁wea	-3492
tadeɛ	-3493
▁anwu	-3494
▁adihɔ	-3495
▁agyaa	-3496
▁ahotɔ	-3497
▁kabii	-3498
▁yosia	-3499
▁ɔbɛdi	-3500
▁adesoa	-3501
▁ahɔhoɔ	-3502
▁fiefoɔ	-3503
▁mpaperɛ	-3504
▁wɔantie	-3505
▁asɔfotadeɛ	-3506
▁ntotorobɛnto	-3507
▁us	-3508
▁nen	-3509
awofo	-3510
dɔɔso	-3511
soade	-3512
ɔnsɔn	-3513
▁bunu	-3514
▁kita	-3515
▁mɛyi	-3516
▁oyii	-3517
▁raba	-3518
▁wɔsɔ	-3519
▁yebu	-3520
▁yoma	-3521
abusua	-3522
ɔwɔtwe	-3523
▁hebri	-3524
▁pasaa	-3525
▁wonoo	-3526
▁ahunta	-3527
▁ntwemu	-3528
▁ɔfirii	-3529
▁merehyɛ	-3530
▁ahosɛpɛw	-3531
▁anisoade	-3532
▁nnapɔnna	-3533
▁aduɔwɔtwe	-3534
kar	-3535
▁afɛ	-3536
▁sar	-3537
mammɔ	-3538
▁akua	-3539
▁aten	-3540
▁kyɛn	-3541
▁lkia	-3542
▁mabɛ	-3543
▁sema	-3544
▁ɛwoɔ	-3545
▁nnepa	-3546
▁amalek	-3547
▁atɔfoɔ	-3548
▁kɔnnua	-3549
▁nufosuo	-3550
▁adwamammɔ	-3551
▁ɔsorosoro	-3552
oo	-3553
sre	-3554
sɛe	-3555
anaa	-3556
lato	-3557
traa	-3558
wiri	-3559
▁fuo	-3560
▁res	-3561
▁ros	-3562
▁twɛ	-3563
▁ɛsɔ	-3564
ahome	-3565
momfa	-3566
rɔkye	-3567
▁mmma	-3568
▁onua	-3569
▁afunu	-3570
▁duane	-3571
▁gibea	-3572
▁kwata	-3573
▁nkoko	-3574
▁wɔabu	-3575
▁adwane	-3576
▁ntwene	-3577
▁rekorɔ	-3578
▁hyiadan	-3579
▁ahuhudeɛ	-3580
▁anibereɛ	-3581
▁nkwagyeɛ	-3582
▁rehoboam	-3583
▁anantwinini	-3584
wɔbɛ	-3585
▁kur	-3586
▁lea	-3587
▁umu	-3588
sreel	-3589
ɔyɛfo	-3590
▁akra	-3591
▁fire	-3592
▁gide	-3593
▁masi	-3594
▁mfuo	-3595
▁asane	-3596
▁bɛkyɛ	-3597
▁rahel	-3598
▁sidon	-3599
▁wohuu	-3600
▁yudea	-3601
▁abosom	-3602
▁amaneɛ	-3603
▁asaria	-3604
▁mmakan	-3605
▁mmuada	-3606
▁momono	-3607
▁pilato	-3608
▁ɔtemmu	-3609
▁abosome	-3610
▁yesreel	-3611
▁asorɔkye	-3612
▁yansafoɔ	-3613
▁amumɔyɛfo	-3614
hom	-3615
lon	-3616
sai	-3617
mutam	-3618
rɛfoɔ	-3619
▁hwam	-3620
▁yoas	-3621
▁ɛnni	-3622
▁apɛde	-3623
▁nyina	-3624
▁sodom	-3625
▁wɔakɔ	-3626
▁wɔate	-3627
▁ɛbere	-3628
▁ɛntɛn	-3629
▁akomam	-3630
▁baason	-3631
▁mehunu	-3632
▁nkumaa	-3633
▁simeon	-3634
▁ɔbisaa	-3635
▁ɔkorow	-3636
▁abotire	-3637
▁ahodwiri	-3638
▁ntwamutam	-3639
▁ɔtwerɛfoɔ	-3640
▁misraimhene	-3641
▁yerusalemfoɔ	-3642
buu	-3643
homm	-3644
toma	-3645
tɔeɛ	-3646
▁ele	-3647
▁guo	-3648
▁poo	-3649
▁atim	-3650
▁baan	-3651
▁kyea	-3652
▁nwan	-3653
▁torɔ	-3654
▁wane	-3655
asuafo	-3656
israel	-3657
▁menni	-3658
▁munni	-3659
▁wɔmmɔ	-3660
▁yisai	-3661
▁ɔgyaa	-3662
▁akodie	-3663
▁akumaa	-3664
▁monnyɛ	-3665
▁nkokoɔ	-3666
▁wɔhyɛɛ	-3667
▁wɔsane	-3668
▁ɛdɔɔso	-3669
▁ntotɔeɛ	-3670
▁akyidifo	-3671
pi	-3672
fta	-3673
hina	-3674
▁des	-3675
▁fuu	-3676
▁ina	-3677
ftali	-3678
ɛberɛ	-3679
▁asau	-3680
▁kiti	-3681
▁meeɛ	-3682
▁nsum	-3683
merika	-3684
▁dunan	-3685
▁kaesa	-3686
▁simei	-3687
▁sɛnee	-3688
▁yɛnam	-3689
▁ɔhunu	-3690
▁ɔreba	-3691
hommɔne	-3692
▁adekye	-3693
▁bɛsɔre	-3694
▁mekasa	-3695
▁mfasoɔ	-3696
▁rekyie	-3697
▁wɔtumi	-3698
▁afieboa	-3699
▁ahonhom	-3700
▁asoɔden	-3701
▁naftali	-3702
▁nkɔnsɔn	-3703
▁anidasoɔ	-3704
▁asɔrefie	-3705
▁dwetɛbena	-3706
▁totorobɛnto	-3707
▁Mi	-3708
tade	-3709
▁set	-3710
ennen	-3711
▁ahas	-3712
▁bibi	-3713
▁teɛm	-3714
▁ɔnan	-3715
tenten	-3716
▁apini	-3717
▁balak	-3718
▁kronn	-3719
▁bɛhunu	-3720
▁bɛhyiaa	-3721
▁montena	-3722
▁ntaaboɔ	-3723
▁wiinwii	-3724
▁wɔfirii	-3725
▁safohene	-3726
▁wɔantumi	-3727
kyerɛkyerɛ	-3728
▁abantenten	-3729
▁ahohommɔne	-3730
▁anwanwadeɛ	-3731
gal	-3732
mun	-3733
nai	-3734
▁og	-3735
suro	-3736
▁efa	-3737
▁gat	-3738
▁hon	-3739
▁ɔyi	-3740
ronya	-3741
▁mesu	-3742
▁nnni	-3743
▁pasa	-3744
▁rebe	-3745
▁aseda	-3746
▁dubaa	-3747
▁hyɛeɛ	-3748
▁mispa	-3749
▁natan	-3750
▁yiraa	-3751
▁mmanin	-3752
▁mubehu	-3753
▁rannaa	-3754
▁wohunu	-3755
▁wɔamfa	-3756
▁adehunu	-3757
▁wɔduruu	-3758
▁ateasefoɔ	-3759
▁atemmufoɔ	-3760
aama	-3761
beon	-3762
lgal	-3763
rɔfo	-3764
sere	-3765
sote	-3766
▁ire	-3767
▁mah	-3768
▁omo	-3769
▁riw	-3770
▁sow	-3771
▁sur	-3772
▁unu	-3773
▁ɔtr	-3774
▁butu	-3775
▁bɛko	-3776
▁fowa	-3777
▁gyan	-3778
▁hasa	-3779
▁rari	-3780
▁dweti	-3781
▁huhuo	-3782
▁kyini	-3783
▁mpapo	-3784
▁pinii	-3785
▁sinai	-3786
▁wotie	-3787
▁wɔabɛ	-3788
▁wɔtuu	-3789
▁wɔyii	-3790
▁ɔsoma	-3791
sotefoɔ	-3792
▁amaama	-3793
▁gibeon	-3794
▁gilgal	-3795
▁woahyɛ	-3796
▁wɔnnya	-3797
▁adwaman	-3798
▁yansafo	-3799
▁agyaadwo	-3800
▁bɔneyɛfo	-3801
▁wamamfoɔ	-3802
▁ɔtreneeni	-3803
▁dwetikɛseɛ	-3804
▁gyinagyina	-3805
▁apɔnkɔsotefoɔ	-3806
ut	-3807
▁Ɛ	-3808
ntie	-3809
pasa	-3810
▁yeɛ	-3811
▁apaa	-3812
▁bɔfo	-3813
▁kran	-3814
▁lipo	-3815
▁muhu	-3816
▁nnwa	-3817
▁wɔyi	-3818
▁hadad	-3819
▁kyera	-3820
▁rifoɔ	-3821
▁susuu	-3822
▁yifoɔ	-3823
▁benaia	-3824
▁buruwa	-3825
▁yakobo	-3826
▁ayitoma	-3827
▁bapɔmma	-3828
▁woahunu	-3829
▁wɔtenaa	-3830
▁hwanhwam	-3831
▁pasapasa	-3832
dada	-3833
sono	-3834
▁bie	-3835
▁soɛ	-3836
▁ɔnn	-3837
bulon	-3838
danee	-3839
guare	-3840
paulo	-3841
▁ammɛ	-3842
▁bɛyi	-3843
▁rama	-3844
▁uria	-3845
yudafo	-3846
▁dɔfoɔ	-3847
▁kiria	-3848
▁kɔkaa	-3849
▁nohoa	-3850
▁yehoa	-3851
▁yɛfoɔ	-3852
▁ahoɔfɛ	-3853
▁amasia	-3854
▁gideon	-3855
▁mommra	-3856
ustralia	-3857
▁abɔnefo	-3858
▁kɔhyiaa	-3859
▁sebulon	-3860
▁aberanteɛ	-3861
▁ahonyadeɛ	-3862
▁ao	-3863
defo	-3864
▁per	-3865
▁aane	-3866
▁beer	-3867
▁doma	-3868
▁duan	-3869
▁hɔho	-3870
▁nafo	-3871
▁rɔni	-3872
▁hamat	-3873
▁raase	-3874
▁sosɛm	-3875
▁samson	-3876
▁semaia	-3877
▁wɔbɛdi	-3878
▁wɔnnim	-3879
▁bɔntene	-3880
▁gyegyee	-3881
▁pradada	-3882
▁mfitiaseɛ	-3883
leb	-3884
umm	-3885
▁mri	-3886
▁inti	-3887
▁iram	-3888
▁nsom	-3889
▁seir	-3890
▁silo	-3891
▁yane	-3892
▁kaleb	-3893
▁kɔfaa	-3894
▁owura	-3895
▁wahyɛ	-3896
▁ɔkumm	-3897
▁muntie	-3898
▁wɔkura	-3899
▁ɔdanee	-3900
▁ahanson	-3901
▁	-3902
a	-3903
n	-3904
e	-3905
o	-3906
m	-3907
ɛ	-3908
i	-3909
s	-3910
w	-3911
ɔ	-3912
y	-3913
u	-3914
r	-3915
k	-3916
b	-3917
d	-3918
h	-3919
t	-3920
.	-3921
f	-3922
p	-3923
g	-3924
M	-3925
A	-3926
?	-3927
,	-3928
l	-3929
S	-3930
N	-3931
'	-3932
Ɛ	-3933
K	-3934
á	-3935
W	-3936
Ɔ	-3937
B	-3938
Y	-3939
E	-3940
O	-3941
D	-3942
H	-3943
c	-3944
F	-3945
0	-3946
T	-3947
J	-3948
!	-3949
P	-3950
́	-3951
1	-3952
(	-3953
)	-3954
C	-3955
2	-3956
j	-3957
ũ	-3958
3	-3959
ã	-3960
G	-3961
"	-3962
’	-3963
/	-3964
v	-3965
:	-3966
I	-3967
-	-3968
5	-3969
9	-3970
z	-3971
V	-3972
x	-3973
L	-3974
R	-3975
8	-3976
6	-3977
4	-3978
ẽ	-3979
õ	-3980
7	-3981
U	-3982
ĩ	-3983
;	-3984
Ͻ	-3985
%	-3986
Z	-3987
q	-3988
ñ	-3989
\	-3990
°	-3991
Á	-3992
é	-3993
ü	-3994
č	-3995
ͻ	-3996
‘	-3997
ǎ	-3998
