<unk>	0
▁n	-0
▁a	-1
▁m	-2
▁w	-3
▁s	-4
▁no	-5
▁na	-6
▁wɔ	-7
an	-8
yɛ	-9
▁b	-10
de	-11
aa	-12
▁ne	-13
ra	-14
▁k	-15
▁h	-16
▁ɔ	-17
▁sɛ	-18
yi	-19
ye	-20
na	-21
ma	-22
fo	-23
re	-24
▁me	-25
▁wo	-26
sa	-27
ni	-28
▁mu	-29
▁ɛ	-30
▁so	-31
ne	-32
on	-33
▁wɔn	-34
▁d	-35
se	-36
te	-37
fi	-38
rɛ	-39
ri	-40
ko	-41
▁ho	-42
so	-43
ka	-44
▁yɛ	-45
wu	-46
sɛ	-47
▁mo	-48
ia	-49
deɛ	-50
pa	-51
su	-52
▁an	-53
wa	-54
▁ad	-55
▁o	-56
ya	-57
ti	-58
foɔ	-59
yerɛ	-60
ɔn	-61
um	-62
be	-63
fa	-64
ro	-65
yin	-66
▁nk	-67
▁ab	-68
to	-69
wura	-70
▁bi	-71
wurade	-72
om	-73
▁ah	-74
yinaa	-75
▁awurade	-76
▁e	-77
▁nyinaa	-78
si	-79
di	-80
we	-81
▁mm	-82
▁ak	-83
▁yi	-84
yan	-85
bɛ	-86
▁ani	-87
▁de	-88
▁bɛ	-89
▁ma	-90
▁ka	-91
▁mma	-92
▁p	-93
▁fi	-94
▁ba	-95
oa	-96
pɔn	-97
▁se	-98
sɛm	-99
▁nn	-100
▁ye	-101
▁be	-102
kopɔn	-103
yankopɔn	-104
wɛ	-105
▁g	-106
▁kɔ	-107
kɔ	-108
ta	-109
▁asa	-110
ane	-111
wi	-112
hu	-113
▁hɔ	-114
wɔ	-115
iara	-116
ɛn	-117
ua	-118
me	-119
da	-120
▁da	-121
▁kyerɛ	-122
is	-123
▁yɛn	-124
tum	-125
▁te	-126
ba	-127
firi	-128
▁ase	-129
eɛ	-130
in	-131
tumi	-132
nu	-133
wo	-134
▁nni	-135
el	-136
▁deɛ	-137
▁nso	-138
man	-139
▁ag	-140
bɔ	-141
▁si	-142
wan	-143
ene	-144
▁af	-145
isra	-146
▁saa	-147
▁on	-148
▁bɔ	-149
▁t	-150
▁ara	-151
bi	-152
▁ɔh	-153
▁y	-154
▁nsa	-155
mm	-156
▁anim	-157
▁asase	-158
ku	-159
▁re	-160
pɛ	-161
▁asɛm	-162
▁baa	-163
ho	-164
▁fa	-165
▁kyerɛɛ	-166
▁wɔa	-167
ron	-168
ru	-169
ie	-170
▁onyankopɔn	-171
▁ɛn	-172
israel	-173
▁nti	-174
gye	-175
▁mp	-176
kyerɛ	-177
▁israel	-178
hwɛ	-179
hyɛ	-180
sɔ	-181
uro	-182
em	-183
▁ko	-184
moa	-185
bu	-186
▁biara	-187
im	-188
yɛn	-189
▁nan	-190
▁wu	-191
▁akyi	-192
tɔ	-193
▁nea	-194
biara	-195
▁nyankopɔn	-196
▁ano	-197
▁pa	-198
▁f	-199
mma	-200
tu	-201
yɛɛ	-202
▁wa	-203
▁maa	-204
sua	-205
Sɛ	-206
▁adu	-207
▁sa	-208
▁ɔn	-209
▁di	-210
yia	-211
wuma	-212
▁aho	-213
▁nkyɛn	-214
samoa	-215
▁wɔde	-216
bena	-217
rima	-218
Me	-219
rɔ	-220
▁mon	-221
▁ɔde	-222
bea	-223
nim	-224
▁mɛ	-225
▁anaa	-226
▁nnipa	-227
mu	-228
▁adi	-229
▁ama	-230
▁firi	-231
▁ako	-232
▁fie	-233
▁ha	-234
▁aba	-235
▁soɔ	-236
▁bo	-237
▁ɛyɛ	-238
▁bɔne	-239
raa	-240
ren	-241
en	-242
gya	-243
ani	-244
▁bere	-245
Asamoa	-246
mfo	-247
▁agya	-248
bo	-249
twa	-250
hunu	-251
yina	-252
twe	-253
tɛ	-254
▁am	-255
▁nko	-256
kye	-257
▁gye	-258
▁afɔ	-259
▁aso	-260
▁ɔhene	-261
▁ɔbɛ	-262
▁hwɛ	-263
kwa	-264
▁ti	-265
▁mi	-266
mfa	-267
ɛse	-268
▁pi	-269
▁nanso	-270
▁mf	-271
nipa	-272
nea	-273
▁nka	-274
▁ayɛ	-275
dan	-276
▁to	-277
do	-278
foro	-279
▁nne	-280
le	-281
▁ya	-282
▁yo	-283
▁yu	-284
nam	-285
ei	-286
sie	-287
▁kwan	-288
baa	-289
maa	-290
▁sɛdeɛ	-291
▁hu	-292
▁abu	-293
suo	-294
▁su	-295
▁den	-296
▁pɛ	-297
▁din	-298
▁ap	-299
▁nsɛm	-300
du	-301
▁adwuma	-302
ha	-303
▁nta	-304
▁wɔbɛ	-305
nya	-306
▁mede	-307
▁yesu	-308
▁ɛfiri	-309
dwo	-310
▁kɔɔ	-311
▁ɔyɛ	-312
▁ade	-313
▁nkɔ	-314
▁yuda	-315
▁woa	-316
kasa	-317
▁bio	-318
ran	-319
▁kuro	-320
▁efi	-321
▁obi	-322
▁pii	-323
▁biri	-324
ten	-325
ree	-326
▁daa	-327
▁ɔman	-328
▁nkwa	-329
▁akɔ	-330
▁nh	-331
Kwa	-332
kron	-333
▁nie	-334
▁fo	-335
pɔ	-336
son	-337
▁abo	-338
▁ɛwɔ	-339
taa	-340
▁sika	-341
▁nna	-342
wid	-343
kum	-344
▁man	-345
saa	-346
▁dawid	-347
ee	-348
▁du	-349
wene	-350
fra	-351
▁obiara	-352
gu	-353
▁mpa	-354
▁ɛbɛ	-355
▁nyɛ	-356
ɔde	-357
▁baako	-358
tena	-359
▁dɔ	-360
▁aman	-361
▁nto	-362
▁mmara	-363
sal	-364
▁onipa	-365
▁yiye	-366
▁sɛnea	-367
ronkron	-368
po	-369
dɔ	-370
▁fam	-371
boa	-372
hwe	-373
▁kɛse	-374
▁ada	-375
▁ni	-376
ase	-377
▁ɛsɛ	-378
▁en	-379
▁ɔk	-380
▁nku	-381
▁kasa	-382
hene	-383
susu	-384
bere	-385
Asamoah	-386
▁ɔba	-387
nee	-388
dii	-389
ono	-390
wie	-391
la	-392
Ná	-393
rɛɛ	-394
▁ɔka	-395
tan	-396
nan	-397
▁kaa	-398
lo	-399
▁afɔdeɛ	-400
onh	-401
▁aka	-402
▁afiri	-403
▁asɔ	-404
▁he	-405
▁ku	-406
▁men	-407
▁kronkron	-408
▁firii	-409
▁yeru	-410
fu	-411
▁gu	-412
▁asafo	-413
siane	-414
▁adeɛ	-415
▁ɛnyɛ	-416
salem	-417
▁yerusalem	-418
▁wobɛ	-419
▁afi	-420
▁yɛɛ	-421
▁mere	-422
▁at	-423
tie	-424
▁mme	-425
ienu	-426
yaa	-427
▁mose	-428
anom	-429
▁ana	-430
▁ɔso	-431
ria	-432
▁A	-433
ad	-434
san	-435
▁ati	-436
ɔden	-437
israim	-438
▁ɔno	-439
sra	-440
▁hene	-441
soɔ	-442
ban	-443
▁bu	-444
▁misraim	-445
▁ɔre	-446
teɛ	-447
▁abɔ	-448
yam	-449
▁kan	-450
kan	-451
ɛnna	-452
▁kra	-453
▁efisɛ	-454
neɛ	-455
yeɛ	-456
▁mpo	-457
nn	-458
betumi	-459
▁ahyɛ	-460
sii	-461
▁akyerɛ	-462
▁ate	-463
susuw	-464
▁moa	-465
▁akyiri	-466
ulo	-467
sia	-468
ris	-469
mi	-470
kɔɔ	-471
▁ata	-472
▁hwe	-473
▁ntam	-474
▁nua	-475
▁anan	-476
▁teɛ	-477
▁sɔ	-478
onhom	-479
▁tumi	-480
▁do	-481
Kwabena	-482
▁mmienu	-483
▁afe	-484
▁nsam	-485
▁ato	-486
mmu	-487
wom	-488
bɔɔ	-489
▁akoma	-490
▁dii	-491
▁mmarima	-492
li	-493
ere	-494
▁bɛn	-495
▁nokwa	-496
kyi	-497
▁mmɔ	-498
▁mmoa	-499
▁afɔre	-500
▁mfa	-501
▁wɔre	-502
risto	-503
▁wɔyɛ	-504
sɛe	-505
▁foforo	-506
▁anka	-507
▁nu	-508
▁ɛho	-509
▁ɔbarima	-510
sane	-511
▁enti	-512
tee	-513
kuo	-514
▁dodo	-515
▁ɔwɔ	-516
waa	-517
nanso	-518
▁nsu	-519
homa	-520
too	-521
▁ɔsɔ	-522
▁hyɛɛ	-523
frɛ	-524
kra	-525
▁kristo	-526
kaa	-527
mmɔ	-528
▁honhom	-529
▁israelfoɔ	-530
aman	-531
▁afei	-532
anu	-533
hyia	-534
▁ahen	-535
hia	-536
▁koraa	-537
▁nkuro	-538
nni	-539
▁nam	-540
▁bɛyɛ	-541
yansa	-542
▁ɛtɔ	-543
Mi	-544
tia	-545
tene	-546
wia	-547
▁faa	-548
▁nkyerɛ	-549
▁afa	-550
▁tu	-551
▁biribiara	-552
▁eyi	-553
mo	-554
▁bɔɔ	-555
▁wɔwɔ	-556
▁nokware	-557
▁sen	-558
▁berɛ	-559
▁biribi	-560
▁fii	-561
▁mmi	-562
▁ɛno	-563
▁nnɛ	-564
▁wode	-565
▁mmu	-566
▁nte	-567
▁pe	-568
▁mpan	-569
▁kwa	-570
die	-571
som	-572
uon	-573
tɛm	-574
▁hyɛ	-575
mon	-576
▁ke	-577
uonyam	-578
kyɛ	-579
ɛma	-580
▁nnan	-581
▁asi	-582
▁ɔne	-583
duru	-584
yehyɛ	-585
ná	-586
▁ɛh	-587
▁wɔka	-588
▁mfiri	-589
▁ogya	-590
▁nhoma	-591
▁kae	-592
▁nsuo	-593
umu	-594
hwehwɛ	-595
yesu	-596
▁yere	-597
▁wɔan	-598
gyina	-599
▁adwene	-600
▁Abena	-601
▁ɛbɛyɛ	-602
▁ren	-603
▁aduan	-604
iɛ	-605
pam	-606
srɛ	-607
▁amanaman	-608
▁akwan	-609
▁po	-610
▁anadwo	-611
nkum	-612
▁nneɛma	-613
▁we	-614
yira	-615
▁fɛ	-616
▁ankasa	-617
▁aduon	-618
inom	-619
▁dan	-620
▁bepɔ	-621
▁ɔbaa	-622
▁abusua	-623
ome	-624
▁le	-625
▁ahu	-626
ware	-627
mfoɔ	-628
▁ɔha	-629
▁Asamoah	-630
won	-631
▁meyɛ	-632
▁ɔsoro	-633
▁wura	-634
▁soro	-635
▁ntoma	-636
▁gyina	-637
▁ɔte	-638
dua	-639
▁nkurɔ	-640
kae	-641
▁anya	-642
go	-643
▁ansa	-644
pe	-645
▁ntɛm	-646
ano	-647
▁mogya	-648
kyia	-649
▁agyan	-650
huu	-651
▁aduane	-652
▁anigye	-653
▁atifi	-654
▁nkoa	-655
▁nim	-656
▁mmom	-657
▁dɛn	-658
▁odi	-659
enti	-660
▁mfi	-661
fe	-662
mme	-663
▁min	-664
▁beb	-665
▁dwe	-666
faa	-667
▁asom	-668
▁ahenni	-669
tua	-670
▁papa	-671
▁saulo	-672
▁kɛseɛ	-673
▁mmaa	-674
ke	-675
▁agu	-676
▁gya	-677
▁woɔ	-678
▁adan	-679
▁hwee	-680
▁seɛ	-681
daa	-682
▁asu	-683
▁kyɛ	-684
▁tena	-685
▁woyɛ	-686
▁nuanom	-687
suafo	-688
▁paa	-689
▁wan	-690
▁abufu	-691
Na	-692
yii	-693
awurade	-694
▁afo	-695
▁nyansa	-696
▁ahem	-697
▁aseɛ	-698
sɔre	-699
rɔn	-700
▁tɔ	-701
Wo	-702
min	-703
nye	-704
▁yei	-705
▁awu	-706
▁sii	-707
▁ɛte	-708
▁yako	-709
▁wia	-710
Yɛ	-711
▁bebree	-712
fei	-713
tra	-714
yidi	-715
▁bɛba	-716
mmaa	-717
bɔne	-718
▁dwuma	-719
suro	-720
▁abra	-721
▁wiase	-722
bukyia	-723
Bere	-724
▁emu	-725
▁agye	-726
twi	-727
▁akoa	-728
▁basa	-729
▁afɔrebukyia	-730
wɛn	-731
moah	-732
▁nnye	-733
am	-734
bel	-735
▁asomdwo	-736
▁hunu	-737
▁mfo	-738
▁kar	-739
yɛfo	-740
▁ten	-741
▁ɔsɔfoɔ	-742
omm	-743
▁twe	-744
▁wɔte	-745
▁nnwan	-746
▁asamoah	-747
dane	-748
▁won	-749
ɔpa	-750
▁werɛ	-751
row	-752
wɔn	-753
▁gi	-754
▁afu	-755
▁ɔse	-756
▁ta	-757
afei	-758
▁awo	-759
Wɔ	-760
▁hyia	-761
▁nson	-762
▁ahan	-763
▁nsra	-764
siesie	-765
▁mfra	-766
▁gyidi	-767
▁tee	-768
▁sal	-769
▁agyanom	-770
mp	-771
▁atɛn	-772
▁baanu	-773
isa	-774
▁obe	-775
▁lewi	-776
▁wopɛ	-777
▁wore	-778
▁atwa	-779
▁yakob	-780
wam	-781
▁owu	-782
▁baabi	-783
he	-784
▁kye	-785
▁ahyia	-786
▁nwo	-787
▁ɔkwan	-788
Min	-789
▁dwetɛ	-790
▁aban	-791
yifoɔ	-792
sɛn	-793
ɔso	-794
ɛseɛ	-795
▁bae	-796
▁apam	-797
tire	-798
▁ahoɔden	-799
wane	-800
▁dua	-801
▁yɛa	-802
▁mpem	-803
▁abɛ	-804
▁adɔ	-805
▁ɔyɛɛ	-806
▁kakra	-807
▁atemmu	-808
▁ɔkɔ	-809
kuu	-810
▁ɛda	-811
ien	-812
▁bɛma	-813
nini	-814
ɛnsa	-815
kyere	-816
▁adaka	-817
▁asɔre	-818
▁ntomadan	-819
▁dum	-820
▁kum	-821
ue	-822
omo	-823
▁mpae	-824
▁adɛn	-825
▁nnua	-826
brɛ	-827
▁bisaa	-828
hye	-829
▁aa	-830
▁asuafo	-831
mpɛ	-832
▁ngo	-833
▁mmra	-834
▁ɔkaa	-835
▁asɔfoɔ	-836
ɔma	-837
▁boa	-838
▁aaron	-839
▁anɔpa	-840
woo	-841
▁mmo	-842
Ne	-843
bia	-844
ton	-845
▁wɔmfa	-846
lia	-847
Ɛsɛ	-848
twaa	-849
Kwaku	-850
kyerɛw	-851
ham	-852
twie	-853
▁han	-854
▁hwan	-855
fɛ	-856
nom	-857
▁atɔ	-858
ira	-859
tuu	-860
▁mfe	-861
▁yie	-862
▁sene	-863
▁nya	-864
tifoɔ	-865
▁anom	-866
▁nwoma	-867
▁mmiɛnsa	-868
lis	-869
▁mfeɛ	-870
▁aha	-871
▁guu	-872
▁wowɔ	-873
Dɛn	-874
bisa	-875
some	-876
hunuu	-877
▁mobɛ	-878
▁ɛre	-879
▁wɔne	-880
▁nkurɔfo	-881
kia	-882
▁tiri	-883
▁Asamoa	-884
wiri	-885
▁pan	-886
tenaa	-887
▁nsraban	-888
aseɛ	-889
▁nipa	-890
▁mmusua	-891
Ma	-892
▁too	-893
▁sɔre	-894
barima	-895
forɔ	-896
▁dɔm	-897
▁san	-898
ɔne	-899
isaa	-900
▁sukuu	-901
▁ahemfo	-902
▁salomo	-903
▁ɔbo	-904
▁aboa	-905
▁mene	-906
▁filis	-907
▁aduonu	-908
nyɛ	-909
gua	-910
wonwa	-911
▁gyee	-912
▁momfa	-913
▁nkran	-914
▁mama	-915
▁babel	-916
Ɛyɛ	-917
▁amane	-918
▁adanse	-919
Mepɛ	-920
▁nno	-921
▁akyire	-922
yare	-923
ɛyɛ	-924
▁anaasɛ	-925
▁ngu	-926
▁adwa	-927
▁bɛka	-928
▁mewɔ	-929
▁yeinom	-930
▁hia	-931
▁koro	-932
sef	-933
gyee	-934
yiaa	-935
kyeree	-936
rao	-937
pan	-938
▁meka	-939
tow	-940
numu	-941
▁ɛse	-942
mmarima	-943
tro	-944
▁momm	-945
dwe	-946
berɛ	-947
rika	-948
▁kɔsi	-949
▁farao	-950
▁akyɛ	-951
▁ahennie	-952
▁mɛma	-953
asamoa	-954
▁animuonyam	-955
ɔho	-956
▁ɛhɔ	-957
▁wobe	-958
▁yɛbɛ	-959
▁atamfo	-960
▁wɔkɔ	-961
bisaa	-962
twerɛ	-963
▁abraham	-964
toa	-965
▁ofi	-966
▁ɔpɛ	-967
▁awia	-968
▁tenabea	-969
hyɛɛ	-970
▁ɔbɔ	-971
iako	-972
pɔnkɔ	-973
▁nnum	-974
▁metumi	-975
hi	-976
tew	-977
▁agyapa	-978
▁anuonyam	-979
▁edi	-980
▁nnom	-981
▁deda	-982
▁yosef	-983
▁yudafo	-984
▁asomdwoeɛ	-985
▁fu	-986
▁Kwabena	-987
▁lewifoɔ	-988
no	-989
soa	-990
▁aku	-991
▁ɔhaw	-992
▁kurow	-993
▁wɔren	-994
ɛno	-995
▁ɔdɔ	-996
▁adua	-997
deɛn	-998
▁abien	-999
asamoah	-1000
▁anyame	-1001
▁mmɔden	-1002
▁nnoɔma	-1003
ki	-1004
▁amma	-1005
▁B	-1006
▁mfu	-1007
▁kete	-1008
▁basafa	-1009
▁filistifoɔ	-1010
Saa	-1011
sei	-1012
▁ɔko	-1013
▁ɛne	-1014
▁biako	-1015
▁ɔfiri	-1016
▁nkrantɛ	-1017
kyerɛkyerɛ	-1018
ga	-1019
pɛn	-1020
▁home	-1021
▁buaa	-1022
▁osu	-1023
▁mayɛ	-1024
▁reba	-1025
▁meren	-1026
▁nkaeɛ	-1027
dom	-1028
sea	-1029
▁yam	-1030
▁mɛyɛ	-1031
▁momma	-1032
yu	-1033
hoa	-1034
▁aboɔ	-1035
▁ahorow	-1036
▁foforɔ	-1037
▁aye	-1038
▁ɔkye	-1039
▁ɔmfa	-1040
▁krataa	-1041
▁bra	-1042
frɛɛ	-1043
enkan	-1044
renee	-1045
▁dedaw	-1046
▁dwom	-1047
wii	-1048
hwam	-1049
▁ɔmaa	-1050
▁wie	-1051
▁sane	-1052
Wu	-1053
duu	-1054
nii	-1055
▁bobe	-1056
werɛ	-1057
▁mepɛ	-1058
▁ɛdeɛn	-1059
twɛn	-1060
▁ɔfa	-1061
▁nnim	-1062
▁dodoɔ	-1063
kwabena	-1064
▁awi	-1065
▁hye	-1066
▁mmɛ	-1067
▁benya	-1068
▁yosua	-1069
▁ananmu	-1070
▁ɔhyeɛ	-1071
▁agyina	-1072
▁nhu	-1073
▁ɛdi	-1074
wɔtwe	-1075
▁koma	-1076
▁dodow	-1077
▁wɔfrɛ	-1078
▁ga	-1079
▁ɔdi	-1080
▁ntwe	-1081
▁ge	-1082
▁ɛpo	-1083
pɔmma	-1084
umuyɛ	-1085
dɔm	-1086
rew	-1087
ruwa	-1088
kɔm	-1089
▁kɔe	-1090
▁twa	-1091
▁mode	-1092
▁pono	-1093
▁ntumi	-1094
▁mpanim	-1095
▁wubetumi	-1096
eyi	-1097
▁pon	-1098
wadeɛ	-1099
▁monn	-1100
▁ame	-1101
▁mpe	-1102
▁bosome	-1103
▁tia	-1104
radeɛ	-1105
▁abusuakuo	-1106
▁frɛɛ	-1107
▁amumuyɛ	-1108
▁nhyehyɛ	-1109
tɔɔ	-1110
▁kɔn	-1111
▁mfom	-1112
▁yeho	-1113
▁mmepɔ	-1114
mia	-1115
▁ra	-1116
dɛn	-1117
▁ayi	-1118
aseɛnam	-1119
▁mmammaa	-1120
sum	-1121
fie	-1122
kora	-1123
▁ɛso	-1124
▁hyeɛ	-1125
▁ɛserɛ	-1126
▁as	-1127
onhwa	-1128
▁anwu	-1129
▁nkonim	-1130
▁agyapadeɛ	-1131
soma	-1132
▁ago	-1133
▁yoa	-1134
▁rekɔ	-1135
bɛn	-1136
hane	-1137
kyiri	-1138
▁apon	-1139
boɔ	-1140
haw	-1141
nenee	-1142
▁hann	-1143
▁nifa	-1144
▁apono	-1145
▁paulo	-1146
▁aduasa	-1147
▁kyerɛw	-1148
rdan	-1149
▁ahwɛ	-1150
▁afoforo	-1151
▁eli	-1152
hyiaa	-1153
anan	-1154
▁nsi	-1155
▁woo	-1156
▁efie	-1157
▁owia	-1158
▁nnɔ	-1159
▁adidi	-1160
▁duru	-1161
▁yordan	-1162
▁ban	-1163
▁som	-1164
▁ɛnna	-1165
▁nhyira	-1166
hɔ	-1167
buu	-1168
▁apue	-1169
▁brɛɛ	-1170
▁kane	-1171
▁moab	-1172
▁kɔsii	-1173
ɛsɛ	-1174
gyaa	-1175
▁wube	-1176
▁esiane	-1177
▁mframa	-1178
▁tie	-1179
▁nkye	-1180
▁apɔnkɔ	-1181
mfi	-1182
▁baeɛ	-1183
▁ɔbea	-1184
▁aduonum	-1185
▁asɔredan	-1186
den	-1187
kɛseɛ	-1188
nnipa	-1189
▁moyɛ	-1190
▁nnyina	-1191
ɔnko	-1192
▁moan	-1193
▁nnamfo	-1194
▁mmirika	-1195
pem	-1196
▁dɛ	-1197
▁sum	-1198
ɔnten	-1199
rɛw	-1200
tɔn	-1201
▁pɛn	-1202
nhyia	-1203
▁ɔren	-1204
▁atoro	-1205
▁honam	-1206
▁asɛmpa	-1207
▁nkutoo	-1208
▁ɔkyena	-1209
mom	-1210
▁abi	-1211
▁yii	-1212
▁anomu	-1213
▁hunuu	-1214
▁abufuo	-1215
▁ntadeɛ	-1216
▁mete	-1217
▁wadi	-1218
▁anantwie	-1219
korɔ	-1220
▁ɔma	-1221
▁foro	-1222
▁babaa	-1223
wee	-1224
▁abe	-1225
fraim	-1226
▁abena	-1227
▁monyɛ	-1228
▁wɔfiri	-1229
doɔ	-1230
yifo	-1231
▁wodi	-1232
adwene	-1233
kuw	-1234
tam	-1235
hyira	-1236
▁aware	-1237
▁u	-1238
lek	-1239
uae	-1240
▁nnu	-1241
▁ɛfa	-1242
▁mfomso	-1243
▁ahyɛdeɛ	-1244
pae	-1245
iɛsa	-1246
▁abiɛsa	-1247
▁apueeɛ	-1248
▁mun	-1249
▁tiaa	-1250
obiara	-1251
▁benyamin	-1252
▁mmapɔmma	-1253
hyeɛ	-1254
▁atu	-1255
▁bet	-1256
ranse	-1257
▁nhyɛ	-1258
▁ɛnneɛ	-1259
▁ɛma	-1260
▁susu	-1261
▁anwumme	-1262
▁awie	-1263
▁ntoa	-1264
asa	-1265
asɛm	-1266
bɛyɛ	-1267
sifo	-1268
▁isa	-1269
duruu	-1270
▁nsɛn	-1271
▁ɔnam	-1272
▁mmɔbɔ	-1273
▁oo	-1274
▁huu	-1275
▁wim	-1276
▁betumi	-1277
▁nkɔm	-1278
efi	-1279
▁amon	-1280
▁elia	-1281
▁ɔdii	-1282
▁awiei	-1283
▁panyin	-1284
Eyi	-1285
nwa	-1286
▁ampa	-1287
▁bɛkɔ	-1288
bɔneyɛfo	-1289
▁woan	-1290
▁yona	-1291
esiane	-1292
▁yɔnko	-1293
▁F	-1294
anee	-1295
nneɛ	-1296
pono	-1297
ɛnyɛ	-1298
▁tenenee	-1299
▁see	-1300
▁sie	-1301
nunkum	-1302
▁akɔsi	-1303
▁asɔfo	-1304
▁anyɛ	-1305
▁yare	-1306
▁anida	-1307
onyankopɔn	-1308
▁dea	-1309
▁kana	-1310
▁yɛde	-1311
▁nsase	-1312
▁od	-1313
borɔ	-1314
▁atia	-1315
▁ɛnam	-1316
▁nhyehyɛe	-1317
ston	-1318
▁mpɛ	-1319
gyinaa	-1320
▁efraim	-1321
▁mpanyin	-1322
▁asafohene	-1323
▁kronkronbea	-1324
yo	-1325
hui	-1326
▁nse	-1327
▁woka	-1328
▁petro	-1329
▁tenaa	-1330
▁nimdeɛ	-1331
▁nkyerɛkyerɛ	-1332
▁ɛnsɛ	-1333
▁asefoɔ	-1334
▁yohane	-1335
hwɛɛ	-1336
▁odiyifoɔ	-1337
bon	-1338
▁tɛ	-1339
▁ahe	-1340
▁ɔda	-1341
werɛho	-1342
▁ayɛyɛ	-1343
▁nhyia	-1344
▁kyerɛkyerɛ	-1345
▁mfirinhyia	-1346
mɛ	-1347
kraa	-1348
nso	-1349
iram	-1350
kwan	-1351
▁asɛ	-1352
▁faako	-1353
boam	-1354
nnye	-1355
▁brɛ	-1356
▁sɛn	-1357
▁akye	-1358
▁wayɛ	-1359
tenenee	-1360
▁J	-1361
▁adom	-1362
▁adwe	-1363
▁mpre	-1364
▁nnya	-1365
▁sion	-1366
▁somaa	-1367
▁nwonwa	-1368
▁nkurɔfoɔ	-1369
kura	-1370
turo	-1371
▁ɔsa	-1372
▁apem	-1373
▁tete	-1374
▁nnwom	-1375
▁wɔnam	-1376
▁abofra	-1377
▁kanaan	-1378
▁mmammarima	-1379
▁i	-1380
mepɛ	-1381
muel	-1382
sram	-1383
▁mfrafra	-1384
▁nsɛnkyerɛ	-1385
dea	-1386
▁ki	-1387
▁more	-1388
▁ahodoɔ	-1389
▁akyirikyiri	-1390
▁nhwi	-1391
Misusuw	-1392
▁kɔbere	-1393
▁mfrafraeɛ	-1394
mɔne	-1395
▁heb	-1396
▁nkyɛ	-1397
▁yɛyɛ	-1398
▁ɛdan	-1399
▁tenten	-1400
▁ayɛyɛdeɛ	-1401
mienu	-1402
▁midi	-1403
▁nyaa	-1404
▁ɔhwɛ	-1405
▁baasa	-1406
rentumi	-1407
▁kakraa	-1408
▁kwabena	-1409
▁adiyifoɔ	-1410
maria	-1411
▁afie	-1412
▁bɛsi	-1413
▁hena	-1414
▁hyɛn	-1415
▁ahɔho	-1416
▁wɔnyɛ	-1417
▁baabiara	-1418
▁dummienu	-1419
▁mpanimfoɔ	-1420
Nea	-1421
mmɛ	-1422
▁agua	-1423
▁ahwe	-1424
▁yoab	-1425
▁ɔbɔɔ	-1426
▁asiria	-1427
efisɛ	-1428
kamfo	-1429
▁bɛto	-1430
▁wɔdi	-1431
▁atena	-1432
▁yeremia	-1433
▁akyiwadeɛ	-1434
▁nteaseɛnam	-1435
▁H	-1436
tuo	-1437
▁ahi	-1438
▁eye	-1439
▁awoɔ	-1440
▁atwam	-1441
▁kyɛfa	-1442
▁wɔnni	-1443
hyɛn	-1444
▁kunu	-1445
▁samuel	-1446
mpren	-1447
▁maame	-1448
▁paano	-1449
▁ɛbɛba	-1450
▁manase	-1451
▁nnansa	-1452
▁atitire	-1453
▁mfonini	-1454
nɛ	-1455
ana	-1456
lead	-1457
mmea	-1458
mfiri	-1459
▁mekɔ	-1460
▁ahyiaeɛ	-1461
rim	-1462
▁ɔhyɛ	-1463
▁ɔbɛyɛ	-1464
▁paanoo	-1465
twam	-1466
▁ntɔ	-1467
▁nwi	-1468
nnini	-1469
▁ɛyɛɛ	-1470
wiriw	-1471
▁adum	-1472
▁aduɔ	-1473
▁mmea	-1474
▁yɛre	-1475
▁siria	-1476
▁wɔayɛ	-1477
▁afiase	-1478
gi	-1479
ini	-1480
nta	-1481
sar	-1482
▁la	-1483
apan	-1484
adwuma	-1485
▁awerɛho	-1486
sam	-1487
horo	-1488
siee	-1489
▁ankɔ	-1490
▁ebia	-1491
▁edom	-1492
▁mmere	-1493
▁afahyɛ	-1494
lon	-1495
▁haw	-1496
▁ɛba	-1497
▁isak	-1498
kenkan	-1499
▁gilead	-1500
▁kuruwa	-1501
▁nipadua	-1502
▁ntoatoa	-1503
didi	-1504
mpɔn	-1505
toro	-1506
▁ayu	-1507
▁ɛka	-1508
▁anni	-1509
tumfoɔ	-1510
▁mmɔborɔ	-1511
wuo	-1512
wono	-1513
▁awɔ	-1514
▁maka	-1515
▁yɛwɔ	-1516
▁ɔdan	-1517
▁afena	-1518
▁atade	-1519
▁dɔɔso	-1520
fii	-1521
see	-1522
▁yaw	-1523
rimaa	-1524
sɛnea	-1525
▁asuo	-1526
▁komm	-1527
▁nhwɛ	-1528
ranteɛ	-1529
▁monkɔ	-1530
▁wɔkɔɔ	-1531
▁mmerɛw	-1532
▁kɛ	-1533
yera	-1534
▁suro	-1535
▁ɔkra	-1536
tenten	-1537
▁dwane	-1538
▁anafoɔ	-1539
▁misusuw	-1540
korɛ	-1541
Obiara	-1542
▁Kwaku	-1543
▁minim	-1544
▁wɔyɛɛ	-1545
▁ɔhyɛɛ	-1546
▁wobɛyɛ	-1547
▁fɔ	-1548
inta	-1549
▁ɔtɔ	-1550
▁onni	-1551
▁kɔkɔɔ	-1552
pi	-1553
▁dun	-1554
▁frɛ	-1555
ntumi	-1556
ommum	-1557
▁akum	-1558
▁kosi	-1559
▁tirim	-1560
▁akɛseɛ	-1561
▁nnebɔneyɛfo	-1562
kuro	-1563
yerɛn	-1564
▁ahia	-1565
▁atua	-1566
▁hese	-1567
▁wɔbɔ	-1568
▁yɛne	-1569
▁ɛnte	-1570
hyehyɛ	-1571
▁nokorɛ	-1572
▁obetumi	-1573
▁mununkum	-1574
▁hi	-1575
▁tɔɔ	-1576
▁ntwa	-1577
▁ɔfaa	-1578
▁abɔne	-1579
▁bɛhyɛ	-1580
▁samaria	-1581
▁wui	-1582
▁nsia	-1583
▁rebɛ	-1584
▁memaa	-1585
▁yonatan	-1586
▁asekyerɛ	-1587
▁kyi	-1588
ɔnhwe	-1589
▁ɔnyɛ	-1590
▁hyiae	-1591
▁woayɛ	-1592
▁ɛpono	-1593
▁sradeɛ	-1594
▁anwonwa	-1595
▁atamfoɔ	-1596
▁hesekia	-1597
guu	-1598
boaa	-1599
mmoa	-1600
tiri	-1601
▁anu	-1602
▁sua	-1603
▁wom	-1604
bereɛ	-1605
bɛnto	-1606
dwene	-1607
▁asoma	-1608
▁bepɔw	-1609
▁tebea	-1610
▁asaman	-1611
nkwa	-1612
▁mihu	-1613
▁reyɛ	-1614
▁ɔkɔɔ	-1615
▁ɛren	-1616
▁menyɛ	-1617
▁wɔadi	-1618
▁abufuw	-1619
▁bonhwa	-1620
▁mmaako	-1621
▁anigyeɛ	-1622
▁E	-1623
Ɛnyɛ	-1624
▁ebe	-1625
▁tuu	-1626
dwane	-1627
▁ahum	-1628
▁bɛbɔ	-1629
▁adane	-1630
▁denne	-1631
▁panin	-1632
▁adidibea	-1633
▁asomdwoe	-1634
fom	-1635
mpa	-1636
difo	-1637
▁nke	-1638
onipa	-1639
▁baal	-1640
▁mube	-1641
▁nkon	-1642
bɔnten	-1643
▁aduru	-1644
▁sorɔn	-1645
▁Franse	-1646
▁abɔfra	-1647
▁anidaso	-1648
▁kyerɛwsɛm	-1649
ram	-1650
gyae	-1651
▁nsɔ	-1652
▁etwa	-1653
▁sare	-1654
▁twaa	-1655
▁ɔkwa	-1656
▁begye	-1657
▁ɔbɛma	-1658
▁anwummerɛ	-1659
▁ntoatoasoɔ	-1660
▁(	-1661
ɔno	-1662
▁koko	-1663
▁nhia	-1664
▁wote	-1665
▁wɔbɔɔ	-1666
▁anuanom	-1667
▁Bo	-1668
mufo	-1669
renom	-1670
▁korɔ	-1671
▁ogye	-1672
▁ɔnni	-1673
kunkum	-1674
▁awufo	-1675
▁homeda	-1676
▁keteke	-1677
▁nantwi	-1678
er	-1679
Sɛ́	-1680
rae	-1681
▁ɔp	-1682
▁ɛhe	-1683
▁soma	-1684
▁wunim	-1685
▁ɔsomaa	-1686
▁aduanan	-1687
▁atemmuo	-1688
▁amanehunu	-1689
trɛ	-1690
duro	-1691
▁asɛe	-1692
▁turo	-1693
▁ɛkɔm	-1694
▁asene	-1695
▁fitaa	-1696
▁mfaso	-1697
▁wiram	-1698
▁wonni	-1699
▁nneyɛɛ	-1700
▁nkwagye	-1701
▁akronkron	-1702
dɛ	-1703
ser	-1704
koraa	-1705
raafo	-1706
oh	-1707
ade	-1708
ena	-1709
sɛɛ	-1710
yie	-1711
boro	-1712
▁obu	-1713
rifoɔ	-1714
twaam	-1715
▁wɔse	-1716
▁yero	-1717
▁agoru	-1718
▁nsusu	-1719
Mintumi	-1720
▁akyɛde	-1721
▁bɛtena	-1722
▁ɔbaako	-1723
▁ahantan	-1724
▁nnommum	-1725
hwie	-1726
sɛpɛ	-1727
▁amo	-1728
▁fɛw	-1729
▁trɛ	-1730
dwiri	-1731
▁atwe	-1732
▁wɔpɛ	-1733
▁ɔtoo	-1734
▁ntena	-1735
▁aduhwam	-1736
▁sorɔnso	-1737
mee	-1738
ret	-1739
aadaa	-1740
tefoɔ	-1741
▁ason	-1742
▁wama	-1743
▁ɛbaa	-1744
▁adɔeɛ	-1745
▁bɛdii	-1746
▁etwaam	-1747
▁nnomaa	-1748
▁ɛkyerɛ	-1749
ɔnhwerew	-1750
▁nananom	-1751
gyaw	-1752
romma	-1753
yinom	-1754
▁ahoni	-1755
▁aniwa	-1756
▁ɔyare	-1757
▁nnwuma	-1758
▁yudafoɔ	-1759
▁anwonwade	-1760
kɛ	-1761
Ɔde	-1762
ɔnn	-1763
biri	-1764
nnua	-1765
salom	-1766
▁bɛdi	-1767
▁hwɛɛ	-1768
▁ahuhu	-1769
▁wɔkaa	-1770
▁dwiriw	-1771
▁gyinae	-1772
▁nantwie	-1773
bua	-1774
▁ar	-1775
mmɔn	-1776
sono	-1777
wiee	-1778
kwaku	-1779
▁mpɛn	-1780
▁wɔnn	-1781
kyerɛɛ	-1782
▁ahome	-1783
▁mmusuakuo	-1784
fat	-1785
hem	-1786
lah	-1787
mpo	-1788
mere	-1789
sini	-1790
▁mese	-1791
▁wɔfa	-1792
▁ɔkae	-1793
▁ɛnne	-1794
▁seesei	-1795
▁yudahene	-1796
▁mprempren	-1797
ben	-1798
Ɔyɛ	-1799
▁ru	-1800
wɔde	-1801
▁boɔ	-1802
▁ayam	-1803
▁ɛdɔm	-1804
hiahia	-1805
▁nkoto	-1806
▁hyehyɛ	-1807
▁monhwɛ	-1808
▁mpoano	-1809
▁ɛsiane	-1810
▁absalom	-1811
▁akronkronneɛ	-1812
pɛɛ	-1813
▁ɛde	-1814
▁ɛto	-1815
Minim	-1816
▁mowɔ	-1817
▁sime	-1818
▁wɔdii	-1819
bɔnefoɔ	-1820
▁amanamanmufo	-1821
Mɛ	-1822
nne	-1823
seɛ	-1824
bubu	-1825
▁gyaa	-1826
▁kɔka	-1827
▁onim	-1828
▁twam	-1829
▁ɔhɔho	-1830
yansafoɔ	-1831
▁yerenom	-1832
▁yeroboam	-1833
ada	-1834
omma	-1835
onya	-1836
▁nyi	-1837
▁ɔto	-1838
wonto	-1839
▁kɛkɛ	-1840
▁ntaa	-1841
▁onya	-1842
▁ntama	-1843
▁wɔaka	-1844
Yɛn	-1845
don	-1846
enaa	-1847
huru	-1848
inti	-1849
▁oyi	-1850
ɛfiri	-1851
▁mman	-1852
yeinom	-1853
yinnye	-1854
▁hwehwɛ	-1855
kyekyere	-1856
▁1	-1857
▁c	-1858
ohn	-1859
Ɛno	-1860
funu	-1861
wuwu	-1862
▁kal	-1863
▁sei	-1864
▁bisa	-1865
▁daeɛ	-1866
▁nebu	-1867
▁ayare	-1868
▁monni	-1869
▁Boston	-1870
▁asubɔnten	-1871
▁atemmudeɛ	-1872
dia	-1873
Mere	-1874
hwan	-1875
soro	-1876
rante	-1877
▁dadeɛ	-1878
▁gyata	-1879
▁woren	-1880
▁mmofra	-1881
▁ɔfasuo	-1882
▁nhwiren	-1883
▁agyenkwa	-1884
sai	-1885
dwen	-1886
▁bem	-1887
▁taa	-1888
pɛɛpɛ	-1889
▁mprɛ	-1890
▁yehu	-1891
▁ɔrekɔ	-1892
▁asomfo	-1893
▁mpaboa	-1894
▁mpaebɔ	-1895
▁nhunumu	-1896
▁pɛpɛɛpɛ	-1897
Mem	-1898
nsu	-1899
sau	-1900
wea	-1901
▁tow	-1902
▁ɛwo	-1903
dɔɔso	-1904
▁kura	-1905
▁abɔfo	-1906
▁ahinta	-1907
▁bɛfiri	-1908
▁ketewa	-1909
▁minnim	-1910
Hena	-1911
home	-1912
melek	-1913
▁abɛn	-1914
▁mika	-1915
▁wɔmm	-1916
▁ɔwoo	-1917
▁trenee	-1918
▁apontow	-1919
torobɛnto	-1920
▁abufuhyeɛ	-1921
nes	-1922
wen	-1923
▁gua	-1924
sifoɔ	-1925
▁mmɛn	-1926
▁ɔseɛ	-1927
▁ɛnnɛ	-1928
▁mpena	-1929
▁wɔnkɔ	-1930
▁akatua	-1931
▁yehosa	-1932
▁ahosɛpɛ	-1933
▁asamando	-1934
resi	-1935
▁akwa	-1936
▁mmrɛ	-1937
▁wone	-1938
▁wɔfaa	-1939
▁awieeɛ	-1940
▁ntaban	-1941
▁adiyifo	-1942
▁afɔrebɔ	-1943
fee	-1944
woa	-1945
▁mũ	-1946
▁sɛɛ	-1947
▁ɔsɛ	-1948
▁esau	-1949
▁meda	-1950
▁woma	-1951
twitwa	-1952
▁atɔeɛ	-1953
▁elisa	-1954
▁mpata	-1955
▁nkata	-1956
▁siane	-1957
▁wɔwoo	-1958
▁ɔbɛka	-1959
▁ɔsɔfo	-1960
▁abakan	-1961
▁afasuo	-1962
▁antumi	-1963
▁asiane	-1964
teneneeni	-1965
Fa	-1966
▁C	-1967
tutu	-1968
yuda	-1969
▁gad	-1970
Mesrɛ	-1971
▁ahab	-1972
▁ahye	-1973
▁dabi	-1974
▁esum	-1975
▁nteɛ	-1976
fohene	-1977
▁wɔkan	-1978
korabea	-1979
▁atadeɛ	-1980
▁kaldea	-1981
▁gyinabea	-1982
ɛm	-1983
bom	-1984
nka	-1985
▁is	-1986
kumm	-1987
▁apa	-1988
binom	-1989
yimfo	-1990
yiraa	-1991
▁bedi	-1992
▁kyɛw	-1993
bonsam	-1994
▁mahyɛ	-1995
▁wɔhyɛ	-1996
▁nkɔmmɔ	-1997
▁anammɔn	-1998
▁nkwasea	-1999
▁abɔnefoɔ	-2000
▁nsoromma	-2001
bue	-2002
kad	-2003
dwoo	-2004
nyae	-2005
sisi	-2006
woda	-2007
▁esi	-2008
▁akra	-2009
▁asie	-2010
▁kɔkɔ	-2011
▁nkra	-2012
▁yebe	-2013
kadnes	-2014
▁amena	-2015
▁menkɔ	-2016
▁nguan	-2017
▁woadi	-2018
▁wɔato	-2019
▁yɛnkɔ	-2020
▁ahonya	-2021
▁benkum	-2022
▁montie	-2023
▁adanseɛ	-2024
▁amonfoɔ	-2025
kadnessar	-2026
▁mmeranteɛ	-2027
anim	-2028
yimi	-2029
▁bea	-2030
▁nwu	-2031
Yɛsrɛ	-2032
kyire	-2033
▁asaa	-2034
▁dwoo	-2035
▁kora	-2036
▁seba	-2037
Minnim	-2038
▁akane	-2039
▁mmuae	-2040
▁wɔbaa	-2041
▁amamfo	-2042
▁mpataa	-2043
▁abannwa	-2044
▁akyerɛkyerɛ	-2045
Ye	-2046
fon	-2047
kɔn	-2048
sow	-2049
yei	-2050
▁apo	-2051
Sɛnea	-2052
▁adwi	-2053
▁afuw	-2054
▁sisi	-2055
▁akasa	-2056
▁nnɔba	-2057
▁nnompe	-2058
▁twetia	-2059
▁rentumi	-2060
doo	-2061
ter	-2062
fira	-2063
▁sra	-2064
▁keru	-2065
▁mesrɛ	-2066
▁ntade	-2067
▁wɔmma	-2068
▁ɔbɛba	-2069
▁adagye	-2070
▁adamfo	-2071
▁nsɛnkyerɛnneɛ	-2072
bal	-2073
han	-2074
Ɛhe	-2075
▁el	-2076
▁es	-2077
keka	-2078
sesa	-2079
▁yen	-2080
▁yɛe	-2081
▁ɔta	-2082
▁awɔw	-2083
▁ayuo	-2084
▁gali	-2085
▁moka	-2086
▁sini	-2087
▁wokɔ	-2088
▁wudi	-2089
▁yɛan	-2090
risifo	-2091
▁ahanu	-2092
▁ahoho	-2093
▁wɔmaa	-2094
▁abɔfoɔ	-2095
▁adagyew	-2096
▁nebukadnessar	-2097
fta	-2098
koɔ	-2099
lea	-2100
naa	-2101
ɔyɛ	-2102
Mewɔ	-2103
basa	-2104
mede	-2105
sene	-2106
▁sɛe	-2107
▁ɔpa	-2108
aniel	-2109
danee	-2110
temaa	-2111
▁hyew	-2112
▁mɛka	-2113
adamfo	-2114
hohoro	-2115
▁wonim	-2116
▁ɔsram	-2117
▁mereka	-2118
▁wɔbɛka	-2119
▁mfunumu	-2120
▁nnanson	-2121
▁ɔbonsam	-2122
guan	-2123
▁ehu	-2124
▁pɛɛ	-2125
▁ɔho	-2126
Kwasi	-2127
▁abrɛ	-2128
▁munn	-2129
▁wuhu	-2130
▁akɛse	-2131
▁nnome	-2132
▁nyame	-2133
▁ruben	-2134
▁susuw	-2135
▁nuabea	-2136
▁asɛnnua	-2137
▁ahohiahia	-2138
▁mpanyimfo	-2139
Ka	-2140
▁j	-2141
hat	-2142
hel	-2143
tim	-2144
mene	-2145
▁tii	-2146
▁ɔbu	-2147
Mempɛ	-2148
Nnipa	-2149
▁enni	-2150
▁mɛkɔ	-2151
▁ɔyii	-2152
trenee	-2153
▁korɔn	-2154
▁kurom	-2155
▁sɔree	-2156
▁nkuraa	-2157
▁wɔhunuu	-2158
▁dwoodwoo	-2159
▁kaldeafoɔ	-2160
us	-2161
sɔn	-2162
▁nom	-2163
mmɔne	-2164
▁wɔtu	-2165
▁ɔmma	-2166
rɔmmea	-2167
▁mprɛn	-2168
misusuw	-2169
▁nhyiam	-2170
▁yehoia	-2171
▁ɔhɔhoɔ	-2172
▁afunumu	-2173
▁ahwɛfoɔ	-2174
▁asraafo	-2175
kyerɛkyerɛfo	-2176
anka	-2177
homm	-2178
kunu	-2179
wira	-2180
▁mom	-2181
▁oho	-2182
▁tua	-2183
▁twi	-2184
wehwɛ	-2185
▁amfa	-2186
▁fɛfɛ	-2187
▁waka	-2188
ankasa	-2189
▁memfa	-2190
▁minni	-2191
▁asaawa	-2192
▁asadeɛ	-2193
▁eyinom	-2194
▁nwɔtwe	-2195
▁wɔbɛyɛ	-2196
▁nnyinasoɔ	-2197
▁yehosafat	-2198
▁asiriahene	-2199
▁sorɔnsorɔmmea	-2200
kem	-2201
nua	-2202
tel	-2203
▁Ho	-2204
adɛn	-2205
▁awɛ	-2206
▁hui	-2207
▁tew	-2208
sɛdeɛ	-2209
▁kɔeɛ	-2210
▁wɔto	-2211
Esiane	-2212
hommɔne	-2213
▁dwumadi	-2214
▁mmarato	-2215
▁wɔatwerɛ	-2216
▁ɔbɔnefoɔ	-2217
0.	-2218
pɔw	-2219
▁En	-2220
kame	-2221
rɛko	-2222
tini	-2223
▁wuo	-2224
▁ɛkɔ	-2225
hwɛfo	-2226
▁bɔɔl	-2227
▁bɛtɔ	-2228
▁mote	-2229
▁wiei	-2230
▁Japan	-2231
▁bɔfoɔ	-2232
▁monka	-2233
▁nkasa	-2234
▁wɔatwa	-2235
▁akwantu	-2236
▁nnaadaa	-2237
▁nnwonto	-2238
▁kyerɛkyerɛfo	-2239
▁T	-2240
roma	-2241
▁kuw	-2242
▁noa	-2243
mammɔ	-2244
ɛnneɛ	-2245
▁asan	-2246
▁medi	-2247
▁mpia	-2248
▁tele	-2249
▁ware	-2250
▁sisii	-2251
▁daniel	-2252
▁kunkum	-2253
▁mmusuo	-2254
▁wɔrekɔ	-2255
Wubetumi	-2256
▁asomafo	-2257
▁nuabarima	-2258
ge	-2259
mas	-2260
tii	-2261
Mede	-2262
frama	-2263
momma	-2264
▁abaa	-2265
▁adie	-2266
▁anum	-2267
▁ɔpon	-2268
asefoɔ	-2269
▁meyɛɛ	-2270
▁mihuu	-2271
▁wɔayi	-2272
▁adagya	-2273
▁amfiri	-2274
▁dumien	-2275
▁ankyerɛ	-2276
▁"	-2277
Man	-2278
aba	-2279
buo	-2280
nna	-2281
tɛn	-2282
▁amu	-2283
▁nwe	-2284
▁ohu	-2285
▁ose	-2286
▁ɛha	-2287
▁didi	-2288
▁kumm	-2289
▁mmua	-2290
▁poma	-2291
▁rema	-2292
hwɛfoɔ	-2293
▁ahuri	-2294
▁betel	-2295
▁manya	-2296
▁mpaeɛ	-2297
▁twene	-2298
▁wɔtwe	-2299
▁ɔfrɛɛ	-2300
▁ɔyɛeɛ	-2301
▁hebron	-2302
▁kraman	-2303
▁aduɔson	-2304
▁ahohora	-2305
▁ntenten	-2306
▁ahintasɛm	-2307
▁ntentensoɔ	-2308
▁2	-2309
See	-2310
wui	-2311
ɛhe	-2312
rado	-2313
▁ntu	-2314
difoɔ	-2315
▁makɔ	-2316
▁siga	-2317
▁ɔtwe	-2318
Seesei	-2319
giresi	-2320
▁nkogu	-2321
▁ɔbɔfo	-2322
▁ɔkasa	-2323
▁galilea	-2324
▁amorifoɔ	-2325
▁basabasa	-2326
▁akwanhyia	-2327
fua	-2328
him	-2329
tonto	-2330
▁mehu	-2331
▁mɛba	-2332
▁redi	-2333
▁serɛ	-2334
▁wɔso	-2335
▁ɔnkɔ	-2336
▁abere	-2337
▁bɔhyɛ	-2338
▁dapɛn	-2339
▁fasuo	-2340
▁pefee	-2341
▁animtia	-2342
▁awerɛhow	-2343
▁misraimfoɔ	-2344
▁S	-2345
kai	-2346
sin	-2347
lato	-2348
▁Aku	-2349
▁ele	-2350
▁nsɛ	-2351
Migye	-2352
kɔbea	-2353
minim	-2354
▁kɔfe	-2355
▁wofi	-2356
▁ɛwom	-2357
ɔntene	-2358
▁mekaa	-2359
▁somfo	-2360
▁afenaa	-2361
▁kɛseyɛ	-2362
▁merebɛ	-2363
▁mfitia	-2364
▁amanneɛ	-2365
▁odiyifo	-2366
▁otumfoɔ	-2367
bim	-2368
has	-2369
kon	-2370
mmo	-2371
ɔbɔ	-2372
ɛda	-2373
rɔno	-2374
tane	-2375
▁afuo	-2376
▁esii	-2377
▁koto	-2378
▁mayi	-2379
▁nnwe	-2380
▁ohuu	-2381
▁rebɔ	-2382
▁reka	-2383
▁ɔsom	-2384
▁ɛteɛ	-2385
▁binom	-2386
▁dɔteɛ	-2387
▁kɔmaa	-2388
▁maria	-2389
▁woaka	-2390
▁amrado	-2391
▁eleasa	-2392
▁gyinaa	-2393
▁wɔtete	-2394
▁ahengua	-2395
▁mintumi	-2396
▁ɔteneneeni	-2397
▁K	-2398
lam	-2399
Ɛte	-2400
bobɔ	-2401
misa	-2402
▁adɔe	-2403
▁kaeɛ	-2404
▁mema	-2405
▁metee	-2406
▁odwan	-2407
▁sekem	-2408
▁ɛberɛ	-2409
▁ɛbɛma	-2410
▁merekɔ	-2411
▁midian	-2412
▁mmasoɔ	-2413
▁nnwetɛ	-2414
▁makyerɛ	-2415
▁adwumayɛ	-2416
▁mpanimfie	-2417
▁akyerɛkyerɛfo	-2418
ete	-2419
ner	-2420
paa	-2421
wɔa	-2422
▁yea	-2423
Minni	-2424
mfini	-2425
petro	-2426
yinam	-2427
▁abia	-2428
▁adwo	-2429
▁ahoɔ	-2430
▁yeri	-2431
daadaa	-2432
▁kwaku	-2433
▁mehwɛ	-2434
▁mpema	-2435
▁onnim	-2436
kyerɛma	-2437
▁akofoɔ	-2438
▁ebinom	-2439
▁mommma	-2440
▁mpomma	-2441
▁ɔbotan	-2442
▁abarimaa	-2443
▁akoradeɛ	-2444
▁akyinnye	-2445
▁mfimfini	-2446
aso	-2447
iri	-2448
tio	-2449
▁pɔ	-2450
leam	-2451
ɔnnɔ	-2452
▁ebi	-2453
▁pia	-2454
banon	-2455
▁amum	-2456
▁asɛn	-2457
▁dane	-2458
▁guan	-2459
▁madi	-2460
▁yɛka	-2461
▁ahunu	-2462
▁prɛko	-2463
▁yadeɛ	-2464
▁ntonto	-2465
▁ontumi	-2466
▁rekasa	-2467
▁asetena	-2468
▁ayaresa	-2469
▁telefon	-2470
▁ɔkraman	-2471
▁abimelek	-2472
▁nnwetɛbena	-2473
obi	-2474
pia	-2475
▁apɛ	-2476
▁bɔs	-2477
▁nin	-2478
hyɛne	-2479
tiriw	-2480
tompo	-2481
waree	-2482
▁boaa	-2483
▁ehia	-2484
▁mebɔ	-2485
▁reho	-2486
▁ɔtee	-2487
lisifo	-2488
▁Holah	-2489
▁bɛkaa	-2490
▁sɔhwɛ	-2491
▁ababaa	-2492
▁ahanum	-2493
▁nkyene	-2494
▁ɔhunuu	-2495
oni	-2496
rɔm	-2497
yɛe	-2498
▁go	-2499
saia	-2500
▁hada	-2501
▁kata	-2502
▁kyee	-2503
▁nyan	-2504
▁wɔba	-2505
▁yɛeɛ	-2506
▁mommɔ	-2507
▁nkɔsi	-2508
▁nsuro	-2509
▁serew	-2510
▁wɔsom	-2511
▁bileam	-2512
▁ɔtenaa	-2513
▁ahansia	-2514
▁nnɔbaeɛ	-2515
▁nkontompo	-2516
abu	-2517
mot	-2518
nsɛ	-2519
Ɛho	-2520
dome	-2521
hena	-2522
huhu	-2523
ntɛm	-2524
osia	-2525
▁api	-2526
▁hwa	-2527
▁sɔɔ	-2528
beawa	-2529
furae	-2530
masko	-2531
▁besi	-2532
▁esia	-2533
▁sede	-2534
▁wayi	-2535
▁abner	-2536
▁ahene	-2537
▁simma	-2538
▁ɔsane	-2539
furaefo	-2540
▁akodeɛ	-2541
▁asotwe	-2542
▁nneyɛe	-2543
▁anantwi	-2544
▁lebanon	-2545
▁ɔkwasea	-2546
▁yebetumi	-2547
▁nantwinini	-2548
▁nsɛnkyerɛnne	-2549
dwa	-2550
kim	-2551
non	-2552
obo	-2553
ɛhɔ	-2554
Biri	-2555
akyi	-2556
mmua	-2557
rane	-2558
▁bar	-2559
▁toa	-2560
▁ɔnn	-2561
korɔn	-2562
rekyi	-2563
▁John	-2564
▁hama	-2565
▁sara	-2566
▁woso	-2567
intinn	-2568
▁abusu	-2569
▁ahwie	-2570
▁akosi	-2571
▁anana	-2572
▁atorɔ	-2573
▁duruu	-2574
▁sotɔɔ	-2575
▁ɛtene	-2576
▁anisoa	-2577
▁onyame	-2578
▁wɔahyɛ	-2579
▁kunkumm	-2580
▁pintinn	-2581
▁ponkɛseɛ	-2582
▁kanaanfoɔ	-2583
▁teaseɛnam	-2584
bra	-2585
dab	-2586
ele	-2587
kar	-2588
Wɔde	-2589
bire	-2590
gyeɛ	-2591
ntum	-2592
rode	-2593
sani	-2594
▁kai	-2595
karia	-2596
▁bɛda	-2597
▁okum	-2598
▁pere	-2599
▁ɔboa	-2600
▁ɔkɔm	-2601
▁ɔnom	-2602
▁danee	-2603
▁kasae	-2604
▁simon	-2605
anuanom	-2606
oatemaa	-2607
▁aboson	-2608
▁wɔsiee	-2609
duruyɛfo	-2610
▁aduosia	-2611
▁kerubim	-2612
▁kɔtenaa	-2613
▁mehunuu	-2614
▁wɔahunu	-2615
▁siriafoɔ	-2616
▁adwennini	-2617
ce	-2618
▁D	-2619
awo	-2620
▁oti	-2621
inwii	-2622
mesrɛ	-2623
sakra	-2624
teɛɛm	-2625
▁atra	-2626
▁borɔ	-2627
bonhwa	-2628
rannaa	-2629
▁akata	-2630
▁akoko	-2631
▁kamfo	-2632
▁nwera	-2633
▁obedi	-2634
▁wugye	-2635
▁ɔdefo	-2636
▁bɛsane	-2637
▁mahunu	-2638
▁mehyɛɛ	-2639
▁nkuran	-2640
dwennini	-2641
▁wimhyɛn	-2642
biribiara	-2643
ok	-2644
▁Y	-2645
Hwɛ	-2646
ela	-2647
mar	-2648
nue	-2649
rea	-2650
▁lo	-2651
oboo	-2652
traa	-2653
▁dae	-2654
▁ewi	-2655
▁hes	-2656
▁mor	-2657
▁tra	-2658
▁tuo	-2659
mmisa	-2660
ɔhene	-2661
▁asia	-2662
▁dinn	-2663
▁mate	-2664
▁nkaa	-2665
▁nnwi	-2666
▁onii	-2667
▁were	-2668
▁wɔma	-2669
▁yera	-2670
▁ɔboɔ	-2671
▁abisa	-2672
▁abura	-2673
▁asefo	-2674
▁babea	-2675
▁kanea	-2676
▁kosii	-2677
▁petee	-2678
▁woama	-2679
▁wɔabɔ	-2680
▁wɔama	-2681
▁yɛnyɛ	-2682
▁ɔbɛkɔ	-2683
▁ɛhyeɛ	-2684
▁abodoo	-2685
▁denden	-2686
▁dennen	-2687
▁mmabaa	-2688
▁nuabaa	-2689
twerɛfoɔ	-2690
▁abooboo	-2691
▁kɔduruu	-2692
▁mmorɔno	-2693
▁babarima	-2694
▁israelfo	-2695
▁nsusuwii	-2696
▁odwennini	-2697
▁tɛkyerɛma	-2698
nia	-2699
siw	-2700
sɔɔ	-2701
▁pu	-2702
adua	-2703
pene	-2704
ronn	-2705
sere	-2706
toma	-2707
▁die	-2708
▁pra	-2709
▁sam	-2710
asefo	-2711
dekai	-2712
hiani	-2713
▁akon	-2714
▁buae	-2715
▁nkum	-2716
▁nsan	-2717
▁twee	-2718
▁ɔsii	-2719
nhyira	-2720
▁mempɛ	-2721
▁moren	-2722
▁sofoɔ	-2723
▁ɛfata	-2724
mintumi	-2725
▁atwene	-2726
▁damasko	-2727
▁sigaret	-2728
▁mordekai	-2729
▁wɔakyerɛw	-2730
ob	-2731
Ade	-2732
kre	-2733
pue	-2734
toɔ	-2735
▁awe	-2736
▁srɛ	-2737
banin	-2738
▁beae	-2739
▁nnɔn	-2740
▁nufo	-2741
▁tiro	-2742
▁wiee	-2743
▁ɔmpɛ	-2744
▁abram	-2745
▁menka	-2746
▁mpoma	-2747
▁nkron	-2748
▁ɛrekɔ	-2749
▁ahiafo	-2750
▁ahyira	-2751
▁merema	-2752
▁yafunu	-2753
▁yeriko	-2754
▁yesaia	-2755
kyerɛmma	-2756
▁mfuturo	-2757
▁sakaria	-2758
oo	-2759
mael	-2760
pore	-2761
teaa	-2762
▁pɛe	-2763
lehem	-2764
tadeɛ	-2765
▁osuo	-2766
▁owuo	-2767
▁ɔhye	-2768
▁kwaeɛ	-2769
▁mekae	-2770
▁moayɛ	-2771
▁renyɛ	-2772
▁ɛreba	-2773
▁ɔbɔfoɔ	-2774
▁ahemfie	-2775
▁ahwehwɛ	-2776
▁ebetumi	-2777
▁sedekia	-2778
▁kɔkyeree	-2779
▁nnwanten	-2780
▁ntɛmntɛm	-2781
▁subonhwa	-2782
▁anwummere	-2783
▁nnɔmmarima	-2784
or	-2785
fan	-2786
ntu	-2787
rot	-2788
▁fe	-2789
Meyɛ	-2790
gyan	-2791
tɔeɛ	-2792
▁owi	-2793
▁amen	-2794
▁mopɛ	-2795
▁nkɔn	-2796
▁odii	-2797
▁ɔsan	-2798
▁anwea	-2799
▁basan	-2800
▁boase	-2801
▁meyii	-2802
▁munim	-2803
▁nhunu	-2804
▁nturo	-2805
▁sanku	-2806
▁wamma	-2807
▁abupɛn	-2808
▁asodie	-2809
▁boston	-2810
▁Boatemaa	-2811
▁ahurisie	-2812
▁farisifo	-2813
▁nnɔnhwerew	-2814
ot	-2815
Mma	-2816
dok	-2817
yaw	-2818
▁ok	-2819
mewɔ	-2820
sraa	-2821
sɛee	-2822
dwuma	-2823
pɔnna	-2824
tania	-2825
▁afrɛ	-2826
▁nnkɔ	-2827
▁sera	-2828
▁sere	-2829
▁tiee	-2830
▁aburo	-2831
▁akorɔ	-2832
▁atiri	-2833
▁ester	-2834
▁fapem	-2835
▁hyiaa	-2836
▁ohoni	-2837
▁sadok	-2838
▁wɔafa	-2839
▁wɔtee	-2840
▁ɔsɔre	-2841
▁ɔsɛeɛ	-2842
▁ismael	-2843
▁wobɛka	-2844
▁abɔnten	-2845
▁ayeforo	-2846
▁boasetɔ	-2847
▁awerɛhoɔ	-2848
▁betlehem	-2849
▁nnwinneɛ	-2850
00	-2851
Ebia	-2852
hwee	-2853
perɛ	-2854
▁gui	-2855
▁gyei	-2856
▁meso	-2857
▁yɛte	-2858
▁anwan	-2859
▁apiti	-2860
▁badwa	-2861
▁tadua	-2862
▁wunni	-2863
▁wɔtoo	-2864
hwehwɛɛ	-2865
reneefo	-2866
▁abrabɔ	-2867
▁ahyɛde	-2868
▁ohiani	-2869
▁gyidifo	-2870
▁atreneefo	-2871
▁kyekyeree	-2872
Wɔn	-2873
emu	-2874
hwi	-2875
Ɔwɔ	-2876
nyaa	-2877
pere	-2878
totɔ	-2879
▁bua	-2880
▁buu	-2881
▁dwo	-2882
awofo	-2883
▁mahu	-2884
▁seru	-2885
▁wobu	-2886
▁yoma	-2887
▁adihɔ	-2888
▁amapa	-2889
▁atene	-2890
▁nwunu	-2891
▁wedeɛ	-2892
▁ɔreka	-2893
▁ahanan	-2894
▁bɛdane	-2895
▁hyerɛn	-2896
▁nkurow	-2897
▁wonnim	-2898
▁wɔbɛfa	-2899
▁yɛbɛyɛ	-2900
▁ɛkorɔn	-2901
▁babelhene	-2902
▁anyansafoɔ	-2903
gal	-2904
suu	-2905
beon	-2906
hina	-2907
popo	-2908
raba	-2909
srɛɛ	-2910
▁dom	-2911
▁mis	-2912
▁mpɔ	-2913
▁nha	-2914
nante	-2915
tofoɔ	-2916
▁boro	-2917
▁ntia	-2918
▁ofii	-2919
▁sesa	-2920
▁ɔgye	-2921
▁ɔsɛe	-2922
▁ɔtaa	-2923
wumfoɔ	-2924
▁esiam	-2925
▁kumaa	-2926
▁memma	-2927
▁menim	-2928
▁mmerɛ	-2929
▁ntoto	-2930
▁otumi	-2931
▁sekan	-2932
▁wohwɛ	-2933
▁wompɛ	-2934
▁yɛmfa	-2935
▁ɔrebɛ	-2936
▁baanan	-2937
▁fiefoɔ	-2938
▁mitumi	-2939
▁awɛmfoɔ	-2940
▁moahunu	-2941
▁mpaperɛ	-2942
▁tentene	-2943
▁ananafoɔ	-2944
▁asɛmmɔne	-2945
▁sukyerɛmma	-2946
Po	-2947
hon	-2948
num	-2949
bunu	-2950
hyee	-2951
lkia	-2952
nnim	-2953
wama	-2954
▁ben	-2955
▁fuw	-2956
▁obo	-2957
▁oni	-2958
▁yuu	-2959
firim	-2960
hwere	-2961
nafoɔ	-2962
▁hiob	-2963
▁meba	-2964
▁mɛyi	-2965
▁nhye	-2966
▁nnam	-2967
▁sɛee	-2968
▁agyaa	-2969
▁ahasa	-2970
▁aniwu	-2971
▁ayera	-2972
▁hebri	-2973
▁laban	-2974
▁nsane	-2975
▁wodii	-2976
▁wogye	-2977
▁ɔbɛdi	-2978
▁akɔnnɔ	-2979
▁atɔfoɔ	-2980
▁franse	-2981
▁ntwemu	-2982
▁ntwene	-2983
▁wɔrebɛ	-2984
▁ɔfirii	-2985
▁Engiresi	-2986
▁ahosɛpɛw	-2987
▁ahuhudeɛ	-2988
▁anisoade	-2989
▁nnipadɔm	-2990
▁adwamammɔ	-2991
▁ɔbabarima	-2992
▁asɔfotadeɛ	-2993
Da	-2994
nai	-2995
rem	-2996
tar	-2997
fide	-2998
kari	-2999
kita	-3000
▁duu	-3001
▁pea	-3002
ahome	-3003
ftali	-3004
wonoo	-3005
ɔyɛfo	-3006
▁afra	-3007
▁wabɔ	-3008
▁wobɔ	-3009
▁wɔbu	-3010
boaboa	-3011
hoahoa	-3012
kraman	-3013
▁haman	-3014
▁migye	-3015
▁woahu	-3016
▁woyɛɛ	-3017
▁ahunta	-3018
▁kɔnnua	-3019
▁anibere	-3020
▁merehyɛ	-3021
▁nufosuo	-3022
▁wɔantie	-3023
▁agyapade	-3024
▁nnipakuw	-3025
▁rehoboam	-3026
▁israelhene	-3027
▁mmɔborɔhunu	-3028
▁ɔkyerɛkyerɛfo	-3029
Su	-3030
▁I	-3031
nti	-3032
sre	-3033
▁ri	-3034
Meda	-3035
fire	-3036
kafo	-3037
mmra	-3038
wɔka	-3039
▁afɛ	-3040
▁ger	-3041
▁gil	-3042
▁oku	-3043
bulon	-3044
mutam	-3045
▁bala	-3046
▁enye	-3047
▁gyae	-3048
▁mfuo	-3049
▁mmma	-3050
▁sema	-3051
▁ɛwoɔ	-3052
▁annye	-3053
▁menam	-3054
▁mmɔho	-3055
▁nkane	-3056
▁suban	-3057
▁tamfo	-3058
▁wɔhwɛ	-3059
▁yosia	-3060
▁yudea	-3061
kunkumm	-3062
▁abosom	-3063
▁adesua	-3064
▁adwane	-3065
▁ahɔhoɔ	-3066
▁daakye	-3067
▁herode	-3068
▁hyiraa	-3069
▁mprenu	-3070
▁abosome	-3071
▁ahwiesa	-3072
▁mekyerɛ	-3073
▁nsateaa	-3074
▁titiriw	-3075
▁ahodwiri	-3076
▁nkwagyeɛ	-3077
▁dɔnhwerew	-3078
▁ɔsorosoro	-3079
▁ntotorobɛnto	-3080
fuo	-3081
mpu	-3082
res	-3083
ruu	-3084
tae	-3085
ɛte	-3086
koto	-3087
kwaa	-3088
nane	-3089
▁hua	-3090
▁koo	-3091
▁ɔpe	-3092
mempɛ	-3093
Ɛbɛyɛ	-3094
ɛntɛn	-3095
▁atim	-3096
▁bata	-3097
▁bena	-3098
▁gide	-3099
▁mɛbɔ	-3100
▁mɛto	-3101
▁safe	-3102
▁srɛɛ	-3103
abusua	-3104
▁ewiem	-3105
▁kataa	-3106
▁pasaa	-3107
▁rahel	-3108
▁wokum	-3109
▁rekorɔ	-3110
▁simeon	-3111
▁boaboaa	-3112
▁otitire	-3113
▁anibereɛ	-3114
▁ntwamutam	-3115
hyew	-3116
onoo	-3117
rani	-3118
ɛwom	-3119
▁fon	-3120
▁mfɛ	-3121
▁bɛfa	-3122
▁funu	-3123
▁mabɔ	-3124
▁mabɛ	-3125
▁mifi	-3126
▁mpen	-3127
▁nana	-3128
▁nkan	-3129
▁ntra	-3130
▁yebu	-3131
▁ɛbɛn	-3132
▁ɛmfa	-3133
minnim	-3134
tiatia	-3135
▁abɔde	-3136
▁ahyɛn	-3137
▁gibea	-3138
▁kwata	-3139
▁nwini	-3140
▁sakre	-3141
▁sodom	-3142
▁yisai	-3143
siesiee	-3144
▁amalek	-3145
▁asaria	-3146
▁hokwan	-3147
▁mereyɛ	-3148
▁mmakan	-3149
▁mmaran	-3150
▁pilato	-3151
▁wɔhyɛɛ	-3152
▁ɔkorow	-3153
▁abotire	-3154
▁hyiadan	-3155
▁mpemadu	-3156
▁ahɔhodan	-3157
▁akyidifo	-3158
▁oduruyɛfo	-3159
▁misraimhene	-3160
Nsu	-3161
ata	-3162
guo	-3163
sen	-3164
anaa	-3165
dɔma	-3166
fusu	-3167
nsum	-3168
woyɛ	-3169
Ɛnsɛ	-3170
▁tim	-3171
▁wɔm	-3172
Mihuu	-3173
duane	-3174
guare	-3175
kɔkɔɔ	-3176
ronya	-3177
sreel	-3178
yadeɛ	-3179
Ɛkame	-3180
▁akan	-3181
▁akua	-3182
▁fran	-3183
▁nkae	-3184
▁woda	-3185
▁yoas	-3186
▁ɛnni	-3187
merika	-3188
rekyie	-3189
▁ahotɔ	-3190
▁apete	-3191
▁asane	-3192
▁dunan	-3193
▁rehwɛ	-3194
▁simei	-3195
▁sukɔm	-3196
▁woakɔ	-3197
▁wɔkae	-3198
▁akumaa	-3199
▁asetra	-3200
▁kenkan	-3201
▁mefiri	-3202
▁mmɔfra	-3203
▁nkokoɔ	-3204
▁obisaa	-3205
▁wɔsane	-3206
▁ɔbisaa	-3207
▁asiesie	-3208
▁foforow	-3209
▁mprɛnsa	-3210
▁yesreel	-3211
▁yerusalemfoɔ	-3212
Wa	-3213
onu	-3214
▁li	-3215
▁nt	-3216
kata	-3217
teɛm	-3218
toso	-3219
ɛnsɛ	-3220
asase	-3221
hanan	-3222
nyina	-3223
sosɛm	-3224
sɛnee	-3225
ɛberɛ	-3226
▁ogua	-3227
▁onua	-3228
▁osua	-3229
▁twɛn	-3230
▁yɛpɛ	-3231
▁ɛmaa	-3232
▁aforo	-3233
▁apini	-3234
▁awofo	-3235
▁fidie	-3236
▁mente	-3237
▁remma	-3238
▁sidon	-3239
▁twerɛ	-3240
▁wɔabu	-3241
▁yɛayɛ	-3242
▁ɔgyaa	-3243
▁ɔhunu	-3244
▁adekye	-3245
▁adesoa	-3246
▁akodie	-3247
▁amaneɛ	-3248
▁bɛhunu	-3249
▁bɛsɔre	-3250
▁mfasoɔ	-3251
▁mubehu	-3252
▁nnedua	-3253
▁nkrataa	-3254
▁ntotɔeɛ	-3255
▁anidasoɔ	-3256
▁safohene	-3257
▁akokoduru	-3258
▁ɔtwerɛfoɔ	-3259
▁ahohommɔne	-3260
aho	-3261
bii	-3262
dum	-3263
ina	-3264
ros	-3265
dada	-3266
ebia	-3267
kiti	-3268
meeɛ	-3269
rari	-3270
tiee	-3271
wɔbɛ	-3272
yere	-3273
▁fuu	-3274
momfa	-3275
wosow	-3276
▁medɔ	-3277
▁nnyɛ	-3278
▁wohu	-3279
▁ɛhaw	-3280
asuafo	-3281
▁akwaa	-3282
▁anhyɛ	-3283
▁dweti	-3284
▁kabii	-3285
▁kaesa	-3286
▁kronn	-3287
▁natan	-3288
▁nnepa	-3289
▁obehu	-3290
▁wɔakɔ	-3291
▁wɔnte	-3292
▁ɔforo	-3293
▁ɔreyɛ	-3294
Wususuw	-3295
▁adɔɔso	-3296
▁mmepɔw	-3297
▁mmuada	-3298
▁monnyɛ	-3299
▁wɔagye	-3300
▁afieboa	-3301
▁afifide	-3302
▁anyinam	-3303
▁nhwehwɛ	-3304
▁wɔduruu	-3305
▁anwanwadeɛ	-3306
▁ayaresabea	-3307
▁dwetikɛseɛ	-3308
▁totorobɛnto	-3309
Mfa	-3310
ire	-3311
▁ef	-3312
ante	-3313
defo	-3314
kyin	-3315
pasa	-3316
torɔ	-3317
tuaa	-3318
yiri	-3319
▁bag	-3320
▁toɔ	-3321
▁ɔyi	-3322
neɛma	-3323
▁abom	-3324
▁anhu	-3325
▁butu	-3326
▁hare	-3327
▁hwɛe	-3328
▁mesu	-3329
▁ntew	-3330
▁owui	-3331
▁pasa	-3332
▁roma	-3333
▁Kwasi	-3334
▁akokɔ	-3335
▁apɛde	-3336
▁balak	-3337
▁hyɛeɛ	-3338
▁mehyɛ	-3339
▁mekɔɔ	-3340
▁minhu	-3341
▁pinii	-3342
▁waree	-3343
▁wɔate	-3344
▁ɔsoma	-3345
sotefoɔ	-3346
▁akomam	-3347
▁bɛboro	-3348
▁bɛkasa	-3349
▁gibeon	-3350
▁gilgal	-3351
▁mehunu	-3352
▁mmanin	-3353
▁ntease	-3354
▁wobɛkɔ	-3355
▁woreka	-3356
▁woreyɛ	-3357
▁wɔbɛma	-3358
▁wɔsɔre	-3359
▁yakobo	-3360
▁adwaman	-3361
▁ahonhom	-3362
▁bɛhyiaa	-3363
▁hwehwɛɛ	-3364
▁montena	-3365
▁nkyekyɛ	-3366
▁ntaaboɔ	-3367
▁atemmufoɔ	-3368
fɔ	-3369
ut	-3370
Men	-3371
sur	-3372
ɔbɛ	-3373
▁TV	-3374
▁ai	-3375
Mete	-3376
fowa	-3377
kran	-3378
lipo	-3379
rɔfo	-3380
rɛma	-3381
▁bie	-3382
▁bom	-3383
▁bue	-3384
▁gat	-3385
▁hoa	-3386
▁tom	-3387
▁ɔfo	-3388
gyaee	-3389
mputa	-3390
paulo	-3391
▁ahas	-3392
▁ahod	-3393
▁moma	-3394
▁ntie	-3395
▁otwa	-3396
▁pene	-3397
▁rebe	-3398
▁toro	-3399
▁wira	-3400
▁ɔyɛe	-3401
Nneɛma	-3402
panyin	-3403
▁abubu	-3404
▁bɛkyɛ	-3405
▁fuwii	-3406
▁hadad	-3407
▁hanan	-3408
▁sinai	-3409
▁wanya	-3410
▁wotie	-3411
▁wɔabɛ	-3412
▁ɔtare	-3413
▁ɛbere	-3414
wiinwii	-3415
yansafo	-3416
▁anomaa	-3417
▁benaia	-3418
▁momono	-3419
▁nufusu	-3420
▁siesie	-3421
▁wubehu	-3422
wamamfoɔ	-3423
▁adehunu	-3424
▁ahotoso	-3425
▁fononoo	-3426
▁woahunu	-3427
▁wususuw	-3428
▁wɔfirii	-3429
▁aberante	-3430
▁hwanhwam	-3431
▁pasapasa	-3432
▁ateasefoɔ	-3433
il	-3434
▁P	-3435
afo	-3436
set	-3437
soɛ	-3438
▁wi	-3439
imfo	-3440
wiei	-3441
Ɔyɛɛ	-3442
▁atɛ	-3443
▁pae	-3444
▁per	-3445
▁tɔe	-3446
Kwame	-3447
kyini	-3448
sisii	-3449
ustra	-3450
yɛfoɔ	-3451
▁deɛn	-3452
▁hasa	-3453
▁mfɛn	-3454
▁silo	-3455
▁yɛkɔ	-3456
buruwa	-3457
▁afotu	-3458
▁didii	-3459
▁dubaa	-3460
▁minya	-3461
▁renka	-3462
▁wagye	-3463
▁wohuu	-3464
▁wɔmmɔ	-3465
▁wɔtaa	-3466
▁wɔyii	-3467
▁yɛnam	-3468
▁abeawa	-3469
▁akyere	-3470
▁bobesa	-3471
▁gideon	-3472
▁kokoam	-3473
▁mommra	-3474
▁nantew	-3475
▁tuntum	-3476
▁wɔtumi	-3477
treneeni	-3478
ustralia	-3479
▁ahohuru	-3480
▁akraman	-3481
▁ayitoma	-3482
▁bapɔmma	-3483
▁hyehyɛɛ	-3484
▁naftali	-3485
▁wɔtenaa	-3486
▁agyaadwo	-3487
▁nokwasɛm	-3488
▁gyinagyina	-3489
▁apɔnkɔsotefoɔ	-3490
ar	-3491
▁G	-3492
Won	-3493
des	-3494
▁ao	-3495
brɛɛ	-3496
kyɛɛ	-3497
mena	-3498
nafo	-3499
nnan	-3500
suaa	-3501
▁ɛsɔ	-3502
rɔkye	-3503
▁befi	-3504
▁hɔho	-3505
▁masi	-3506
▁mmfa	-3507
▁nnni	-3508
▁nyin	-3509
▁ofie	-3510
▁rama	-3511
▁seir	-3512
▁uria	-3513
▁wɔsɔ	-3514
▁wɔyi	-3515
▁ɔbrɛ	-3516
▁bobɔɔ	-3517
▁dunum	-3518
▁dɔfoɔ	-3519
▁munni	-3520
▁yenim	-3521
▁ahoɔfɛ	-3522
▁kyinii	-3523
▁mommfa	-3524
▁nkamfo	-3525
▁semaia	-3526
▁wɔamfa	-3527
▁ahyehyɛ	-3528
▁asoɔden	-3529
▁nkrante	-3530
▁mpofirim	-3531
▁wɔkyeree	-3532
▁aberanteɛ	-3533
▁ahonyadeɛ	-3534
▁amumɔyɛfo	-3535
▁mfitiaseɛ	-3536
▁ɔtreneeni	-3537
:3	-3538
leb	-3539
ɔka	-3540
duan	-3541
koro	-3542
meda	-3543
muka	-3544
nɔne	-3545
pira	-3546
toto	-3547
▁mia	-3548
▁pue	-3549
▁ɛbɔ	-3550
Abena	-3551
huhuo	-3552
kyera	-3553
ntwɛn	-3554
panin	-3555
ɛbɛyɛ	-3556
▁aane	-3557
▁beer	-3558
▁bɛko	-3559
▁bɛyi	-3560
▁wodɔ	-3561
yudafo	-3562
▁afunu	-3563
▁akyɛm	-3564
▁aseda	-3565
▁hwene	-3566
▁kaleb	-3567
▁kiria	-3568
▁kɔkaa	-3569
▁menni	-3570
▁mispa	-3571
▁owura	-3572
▁wɔsii	-3573
▁yehoa	-3574
▁ɔkumm	-3575
▁baason	-3576
▁wobedi	-3577
▁wobɛma	-3578
▁wohunu	-3579
▁wɔbɛdi	-3580
▁wɔnnim	-3581
▁wɔnnya	-3582
▁meremfa	-3583
▁pradada	-3584
▁amannɔne	-3585
▁asorɔkye	-3586
▁owuyadeɛ	-3587
▁wobetumi	-3588
▁aduɔwɔtwe	-3589
kyerɛkyerɛɛ	-3590
▁kronkronni	-3591
▁anantwinini	-3592
▁O	-3593
Abɔ	-3594
noa	-3595
rum	-3596
ɔre	-3597
▁fã	-3598
dani	-3599
tiaa	-3600
▁ita	-3601
▁mae	-3602
▁soo	-3603
▁sui	-3604
▁ɔhe	-3605
atade	-3606
migye	-3607
▁apaa	-3608
▁asua	-3609
▁behu	-3610
▁kɔma	-3611
▁mɛfa	-3612
▁nsub	-3613
▁ohui	-3614
▁oyii	-3615
▁wɔpa	-3616
▁ɔnka	-3617
▁ɛhyɛ	-3618
seesei	-3619
▁botae	-3620
▁hamat	-3621
▁menya	-3622
▁mufoɔ	-3623
▁nante	-3624
▁sihon	-3625
▁wahyɛ	-3626
▁wokae	-3627
▁yɛren	-3628
ɔbarima	-3629
▁abɔdeɛ	-3630
▁mpanin	-3631
▁nsɛsoɔ	-3632
▁samson	-3633
▁wɔkura	-3634
▁wɔtena	-3635
▁ɔdanee	-3636
▁kɔhyiaa	-3637
▁wubenya	-3638
▁ɛrenkyɛ	-3639
Biribiara	-3640
▁monnsuro	-3641
▁nnwankuo	-3642
▁oguammaa	-3643
▁berɛsosɛm	-3644
▁dwetɛbena	-3645
▁mmɔborɔni	-3646
▁siriahene	-3647
An	-3648
afi	-3649
mel	-3650
nen	-3651
doma	-3652
huam	-3653
kyɛn	-3654
naba	-3655
yane	-3656
yini	-3657
▁efa	-3658
▁lot	-3659
▁mah	-3660
bobɔɔ	-3661
ennen	-3662
mmufo	-3663
susuu	-3664
▁asau	-3665
▁bobɔ	-3666
▁buee	-3667
▁gyaw	-3668
▁homa	-3669
▁mafa	-3670
▁mpra	-3671
▁nsom	-3672
▁nwan	-3673
▁popo	-3674
▁teeɛ	-3675
▁wɔdɔ	-3676
▁ahuru	-3677
▁akutu	-3678
▁asodi	-3679
▁botan	-3680
▁kɔbɔɔ	-3681
▁kɔfaa	-3682
▁mpapo	-3683
▁mɛsan	-3684
▁nnuru	-3685
▁sɔfoɔ	-3686
▁wonam	-3687
▁wɔtuu	-3688
▁yenni	-3689
▁yesua	-3690
▁ɔgyee	-3691
▁agyata	-3692
▁ahodeɛ	-3693
▁amasia	-3694
▁ayamye	-3695
▁munnye	-3696
▁muntie	-3697
▁ogyina	-3698
▁wobɛpɛ	-3699
▁wonnye	-3700
▁wɔasɛe	-3701
▁yudani	-3702
▁yɛnhwɛ	-3703
▁ɔpɔnkɔ	-3704
▁ahanson	-3705
▁frankaa	-3706
▁nnuhwam	-3707
▁sebulon	-3708
▁wogyina	-3709
▁ɔhemmaa	-3710
▁asɔrefie	-3711
▁asɛmmisa	-3712
▁mmabanin	-3713
▁yehoiada	-3714
▁sikakɔkɔɔ	-3715
▁ɔsafohene	-3716
▁nnwontofoɔ	-3717
▁ntweneduro	-3718
No	-3719
▁l	-3720
Aba	-3721
fuw	-3722
lan	-3723
mri	-3724
mun	-3725
tea	-3726
ɛho	-3727
▁og	-3728
Mpɛn	-3729
anum	-3730
eeki	-3731
fraa	-3732
meyɛ	-3733
mmrɛ	-3734
wobɛ	-3735
yɛde	-3736
▁dam	-3737
▁dee	-3738
▁mɛn	-3739
▁sik	-3740
saret	-3741
wifoɔ	-3742
yanee	-3743
▁abue	-3744
▁ante	-3745
▁araa	-3746
▁atew	-3747
▁atuu	-3748
▁bɛwu	-3749
▁dɔla	-3750
▁muhu	-3751
▁nsen	-3752
▁sɛeɛ	-3753
kɔnsɔn	-3754
monhwɛ	-3755
muɔden	-3756
▁akora	-3757
▁bɛyɛɛ	-3758
▁japan	-3759
▁keeki	-3760
▁mabrɛ	-3761
▁nkete	-3762
▁sɛsɛɛ	-3763
▁wanka	-3764
▁wonya	-3765
▁wɔnku	-3766
▁ɔbɛfa	-3767
rempren	-3768
▁ayeyie	-3769
▁bibire	-3770
▁isakar	-3771
▁mekasa	-3772
▁nkanea	-3773
▁nkumaa	-3774
▁wɔagya	-3775
▁wɔfrɛɛ	-3776
▁ɛdɔɔso	-3777
▁gyegyee	-3778
▁koogyan	-3779
▁kɔmputa	-3780
▁monsane	-3781
▁wobegye	-3782
▁ɔbɛtena	-3783
▁aprannaa	-3784
▁nkotodwe	-3785
▁ntotosoɔ	-3786
▁wɔantumi	-3787
▁nyansafoɔ	-3788
▁abantenten	-3789
▁adwumayɛfo	-3790
▁denneennen	-3791
▁sikakorabea	-3792
Kɔ	-3793
as	-3794
pu	-3795
Obi	-3796
bes	-3797
ita	-3798
pra	-3799
reɛ	-3800
Wowɔ	-3801
bura	-3802
hini	-3803
kyea	-3804
meka	-3805
ntwe	-3806
nyaw	-3807
terɛ	-3808
ɛnnɛ	-3809
▁dɔn	-3810
▁lea	-3811
▁omu	-3812
▁yiw	-3813
▁ɔwo	-3814
▁ɛsi	-3815
babel	-3816
▁abaw	-3817
▁anko	-3818
▁atom	-3819
▁dede	-3820
▁nnwa	-3821
▁suko	-3822
▁tire	-3823
▁wakɔ	-3824
▁wawu	-3825
▁wufi	-3826
▁ɔnan	-3827
▁ɛsom	-3828
ɛsiane	-3829
▁Dwoda	-3830
▁asera	-3831
▁bɛhwɛ	-3832
▁horow	-3833
▁kusuu	-3834
▁mefaa	-3835
▁metra	-3836
▁midii	-3837
▁mmobɔ	-3838
▁monyi	-3839
▁nomee	-3840
▁nsesa	-3841
▁onyaa	-3842
▁wɔtɔn	-3843
▁ɛsono	-3844
▁aduaba	-3845
▁ahobrɛ	-3846
▁amanne	-3847
▁aniwuo	-3848
▁hesbon	-3849
▁mobɛyɛ	-3850
▁tumfoɔ	-3851
▁wofiri	-3852
▁wosuro	-3853
▁wɔgyaa	-3854
▁yɛmmea	-3855
▁abɔnefo	-3856
▁ahopopo	-3857
▁aponnwa	-3858
▁asomfoɔ	-3859
▁asuogya	-3860
▁dubaako	-3861
▁ketewaa	-3862
▁moantie	-3863
▁nkɔnsɔn	-3864
▁nnebɔne	-3865
▁wontumi	-3866
▁abansoro	-3867
▁borɔdɔma	-3868
▁nnapɔnna	-3869
▁polisifo	-3870
▁afɔrebɔdeɛ	-3871
▁dwanekɔbea	-3872
▁honhommɔne	-3873
▁mmaranimfo	-3874
▁mpemaduonu	-3875
▁nhomakorabea	-3876
Si	-3877
Nah	-3878
ber	-3879
ema	-3880
hum	-3881
men	-3882
twɛ	-3883
Ɛtɔ	-3884
ɔwɔ	-3885
boni	-3886
koaa	-3887
mane	-3888
mete	-3889
mɔbɔ	-3890
tera	-3891
yowa	-3892
▁2:3	-3893
▁dwa	-3894
▁fom	-3895
anada	-3896
kɔfoɔ	-3897
ranom	-3898
trɛtɛ	-3899
Ɔkwan	-3900
▁abua	-3901
▁	-3902
a	-3903
n	-3904
e	-3905
o	-3906
m	-3907
ɛ	-3908
i	-3909
s	-3910
ɔ	-3911
w	-3912
y	-3913
u	-3914
r	-3915
k	-3916
b	-3917
d	-3918
h	-3919
t	-3920
f	-3921
p	-3922
.	-3923
g	-3924
l	-3925
M	-3926
A	-3927
?	-3928
,	-3929
S	-3930
N	-3931
'	-3932
Ɛ	-3933
K	-3934
á	-3935
W	-3936
Ɔ	-3937
B	-3938
Y	-3939
E	-3940
O	-3941
D	-3942
H	-3943
c	-3944
F	-3945
0	-3946
T	-3947
J	-3948
!	-3949
P	-3950
́	-3951
1	-3952
(	-3953
)	-3954
C	-3955
2	-3956
j	-3957
3	-3958
ũ	-3959
ã	-3960
G	-3961
"	-3962
’	-3963
/	-3964
v	-3965
:	-3966
I	-3967
-	-3968
z	-3969
5	-3970
9	-3971
V	-3972
L	-3973
x	-3974
R	-3975
8	-3976
6	-3977
4	-3978
ẽ	-3979
õ	-3980
7	-3981
U	-3982
ĩ	-3983
;	-3984
Ͻ	-3985
%	-3986
Z	-3987
q	-3988
ñ	-3989
\	-3990
°	-3991
Á	-3992
é	-3993
ü	-3994
č	-3995
ǎ	-3996
ͻ	-3997
‘	-3998
