<unk>	0
▁n	-0
▁a	-1
▁m	-2
▁s	-3
▁w	-4
▁no	-5
▁b	-6
▁k	-7
yɛ	-8
▁h	-9
▁na	-10
▁wɔ	-11
aa	-12
▁d	-13
an	-14
▁sɛ	-15
▁.	-16
▁ne	-17
ra	-18
ye	-19
▁ɔ	-20
▁t	-21
yi	-22
en	-23
▁wo	-24
ma	-25
▁me	-26
▁f	-27
re	-28
▁an	-29
sa	-30
de	-31
▁ɛ	-32
▁mu	-33
▁so	-34
on	-35
▁yɛ	-36
▁ho	-37
rɛ	-38
na	-39
▁bi	-40
fo	-41
▁p	-42
ri	-43
se	-44
▁wɔn	-45
ka	-46
▁e	-47
▁nn	-48
▁o	-49
sɛ	-50
wa	-51
▁ad	-52
um	-53
oa	-54
wu	-55
▁de	-56
so	-57
▁yi	-58
▁ka	-59
ia	-60
▁g	-61
su	-62
ɔn	-63
ko	-64
ya	-65
yerɛ	-66
ie	-67
▁mo	-68
im	-69
▁ab	-70
ro	-71
▁nk	-72
▁mm	-73
▁nt	-74
ɛn	-75
yin	-76
▁be	-77
▁ma	-78
▁ak	-79
▁ah	-80
in	-81
pa	-82
ii	-83
yinaa	-84
iri	-85
▁fo	-86
▁nyinaa	-87
umi	-88
ena	-89
▁kɔ	-90
om	-91
be	-92
▁te	-93
rade	-94
bɛ	-95
ene	-96
▁awu	-97
te	-98
sam	-99
▁hɔ	-100
▁da	-101
▁ba	-102
ua	-103
▁mma	-104
▁bɛ	-105
▁awurade	-106
▁kyerɛ	-107
wɔ	-108
▁af	-109
▁ye	-110
▁ani	-111
yan	-112
▁se	-113
sɛm	-114
wɛ	-115
▁?	-116
samoa	-117
we	-118
▁,	-119
▁saa	-120
▁on	-121
▁re	-122
▁ase	-123
kɔ	-124
me	-125
▁yɛn	-126
▁i	-127
di	-128
am	-129
▁at	-130
▁ko	-131
Sɛ	-132
foɔ	-133
deɛ	-134
▁si	-135
▁wu	-136
pɛ	-137
pɔn	-138
Me	-139
ne	-140
fa	-141
tumi	-142
▁nni	-143
uu	-144
wan	-145
yanko	-146
yankopɔn	-147
▁bia	-148
▁r	-149
wo	-150
Asamoa	-151
bena	-152
▁ara	-153
ane	-154
bi	-155
▁deɛ	-156
si	-157
▁ag	-158
▁baa	-159
▁asa	-160
▁su	-161
da	-162
▁nea	-163
▁'	-164
▁ku	-165
▁bɔ	-166
▁nh	-167
ba	-168
▁di	-169
▁pa	-170
▁gye	-171
▁wa	-172
▁biara	-173
▁asɛm	-174
bia	-175
▁to	-176
wuma	-177
sra	-178
▁am	-179
▁nso	-180
▁ɛn	-181
▁mf	-182
▁y	-183
▁sa	-184
▁ɔh	-185
eɛ	-186
▁bere	-187
to	-188
▁hu	-189
▁l	-190
biara	-191
▁kyerɛɛ	-192
▁ha	-193
▁mi	-194
▁mp	-195
▁bo	-196
▁nti	-197
▁fa	-198
▁nan	-199
▁anim	-200
▁fi	-201
hu	-202
Kwa	-203
▁nsa	-204
▁ni	-205
el	-206
yɛn	-207
▁maa	-208
▁wɔa	-209
▁asase	-210
ru	-211
nu	-212
▁ɛyɛ	-213
ɔne	-214
▁akyi	-215
▁hwɛ	-216
▁ano	-217
bɔ	-218
▁ɔn	-219
▁foɔ	-220
gye	-221
ni	-222
▁adu	-223
▁pɛ	-224
▁ya	-225
ron	-226
▁adwuma	-227
fi	-228
Asamoah	-229
wi	-230
kyerɛ	-231
hwɛ	-232
▁onyankopɔn	-233
▁fie	-234
srael	-235
Ná	-236
ho	-237
▁pii	-238
yɛɛ	-239
▁israel	-240
▁aho	-241
ku	-242
rima	-243
▁mɛ	-244
bea	-245
raa	-246
kwa	-247
▁aba	-248
▁adi	-249
▁yiye	-250
suw	-251
▁wɔde	-252
yia	-253
▁du	-254
▁den	-255
▁biri	-256
ti	-257
▁anaa	-258
▁A	-259
em	-260
▁firi	-261
▁tu	-262
sua	-263
▁ɔde	-264
▁as	-265
▁anka	-266
▁kasa	-267
▁ama	-268
▁hwe	-269
▁nyankopɔn	-270
▁tumi	-271
▁kwan	-272
▁nkyɛn	-273
yina	-274
▁nnipa	-275
▁ayɛ	-276
firi	-277
ɔre	-278
▁ade	-279
▁nka	-280
man	-281
▁bu	-282
nea	-283
▁nku	-284
▁ɔbɛ	-285
▁bɔne	-286
▁mon	-287
▁en	-288
▁soɔ	-289
ren	-290
oma	-291
ɛse	-292
▁ra	-293
▁obi	-294
▁nanso	-295
foro	-296
Kwabena	-297
▁ti	-298
hyɛ	-299
▁kɔɔ	-300
maa	-301
▁nyɛ	-302
ta	-303
▁sika	-304
▁ɔk	-305
▁ɛsɛ	-306
▁nsu	-307
rɔ	-308
samoah	-309
ere	-310
wene	-311
▁aso	-312
ad	-313
▁bio	-314
▁nsɛm	-315
▁yɛɛ	-316
▁dɔ	-317
mu	-318
▁tɔ	-319
tɔ	-320
▁ako	-321
▁ap	-322
▁ɔyɛ	-323
▁din	-324
▁u	-325
▁agya	-326
▁mmɔ	-327
ini	-328
do	-329
▁man	-330
▁abu	-331
▁ta	-332
mma	-333
betumi	-334
▁aa	-335
▁sɛnea	-336
▁nkɔ	-337
▁nna	-338
▁woa	-339
▁kɛse	-340
ea	-341
▁ɛwɔ	-342
▁daa	-343
nim	-344
▁mpa	-345
susuw	-346
▁do	-347
▁mede	-348
▁ɔhene	-349
ná	-350
▁kye	-351
▁bɛn	-352
▁kra	-353
saa	-354
taa	-355
▁ri	-356
▁kuro	-357
▁akɔ	-358
▁Abena	-359
▁aka	-360
▁kaa	-361
▁koraa	-362
▁obiara	-363
▁wobɛ	-364
den	-365
dan	-366
gya	-367
▁kwa	-368
▁abo	-369
ran	-370
ien	-371
▁we	-372
▁paa	-373
bu	-374
▁bɔɔ	-375
▁dii	-376
▁gu	-377
Mi	-378
▁hyɛ	-379
▁men	-380
▁gya	-381
▁dan	-382
▁Asamoah	-383
▁nkwa	-384
▁foforo	-385
ten	-386
▁ke	-387
▁afe	-388
▁wɔbɛ	-389
▁eɛ	-390
▁nim	-391
mfa	-392
Min	-393
▁nya	-394
▁sen	-395
▁gyina	-396
▁sɛdeɛ	-397
ɛm	-398
▁ɔman	-399
▁ada	-400
barima	-401
baa	-402
▁yu	-403
▁fii	-404
▁min	-405
▁ten	-406
▁kan	-407
▁hye	-408
▁nhoma	-409
▁mfa	-410
▁yo	-411
▁aman	-412
▁biribi	-413
wie	-414
▁ɛbɛ	-415
▁twa	-416
ipa	-417
▁fam	-418
▁yesu	-419
▁ɔre	-420
▁ɛfiri	-421
Wɔ	-422
▁san	-423
▁ɔka	-424
Na	-425
▁yuda	-426
▁po	-427
▁el	-428
▁boa	-429
▁mere	-430
Wo	-431
▁eyi	-432
▁kae	-433
fra	-434
▁twe	-435
▁hia	-436
rɛɛ	-437
▁ren	-438
▁dodo	-439
Yɛ	-440
▁kak	-441
▁ankasa	-442
▁mmara	-443
▁adwene	-444
bere	-445
Bere	-446
ani	-447
▁nie	-448
▁fɛ	-449
▁teɛ	-450
▁ɛnyɛ	-451
▁onipa	-452
▁mmoa	-453
siane	-454
▁baako	-455
▁asamoah	-456
pɔ	-457
▁afiri	-458
▁efi	-459
▁nko	-460
▁won	-461
▁hene	-462
mfo	-463
▁kyɛ	-464
▁kron	-465
wid	-466
▁dawid	-467
▁nneɛ	-468
▁nokwa	-469
▁nneɛma	-470
▁sie	-471
▁akyerɛ	-472
▁ns	-473
▁nua	-474
▁nu	-475
ree	-476
▁biribiara	-477
bo	-478
ɔdeɛ	-479
▁dwuma	-480
▁nne	-481
▁kar	-482
▁nam	-483
▁tie	-484
fe	-485
kron	-486
▁sɛm	-487
▁hyɛɛ	-488
▁ntɛm	-489
▁he	-490
mi	-491
sal	-492
▁sua	-493
kan	-494
▁ro	-495
▁enti	-496
▁bɛyɛ	-497
▁tena	-498
mm	-499
waa	-500
▁mpo	-501
▁ato	-502
▁nokware	-503
▁afɔdeɛ	-504
▁nnɛ	-505
▁tee	-506
iase	-507
wom	-508
▁om	-509
▁adeɛ	-510
Kwaku	-511
Ɛsɛ	-512
▁faa	-513
▁aduan	-514
▁mfo	-515
▁wopɛ	-516
▁ɔwɔ	-517
▁papa	-518
sie	-519
adwo	-520
▁kum	-521
kuu	-522
▁sɔ	-523
▁mmu	-524
▁anadwo	-525
▁wie	-526
▁ɔno	-527
Dɛn	-528
▁moa	-529
Ɛn	-530
nam	-531
▁ɔs	-532
▁Asamoa	-533
▁anan	-534
▁ɔso	-535
▁meyɛ	-536
▁asafo	-537
▁kronkron	-538
▁ɛte	-539
▁hwehwɛ	-540
▁firii	-541
ono	-542
min	-543
▁nkyerɛ	-544
▁sukuu	-545
▁yeru	-546
ɔfoɔ	-547
▁bea	-548
▁hwee	-549
▁akyiri	-550
▁ahyɛ	-551
▁nnye	-552
▁wode	-553
Ma	-554
yaa	-555
ienu	-556
▁anigye	-557
srɛ	-558
▁hunu	-559
▁hyia	-560
salem	-561
▁yerusalem	-562
▁kakra	-563
▁wan	-564
onh	-565
▁afi	-566
wia	-567
tu	-568
Ɛyɛ	-569
kɔɔ	-570
▁mose	-571
▁ɔbarima	-572
Mepɛ	-573
▁akwan	-574
▁ɛh	-575
▁ɛno	-576
▁ɛho	-577
yansa	-578
nan	-579
▁dɛn	-580
▁mme	-581
dii	-582
mpɛ	-583
anom	-584
▁too	-585
▁ntam	-586
▁efisɛ	-587
too	-588
▁woyɛ	-589
neɛ	-590
▁ansa	-591
▁pe	-592
▁sii	-593
▁ɔha	-594
▁nta	-595
▁wɔyɛ	-596
amfo	-597
▁sɔre	-598
▁wi	-599
sraim	-600
▁misraim	-601
▁mmarima	-602
lo	-603
tɛ	-604
▁sɛe	-605
row	-606
▁ati	-607
dɔ	-608
▁ate	-609
▁Kwabena	-610
▁gyee	-611
▁mfe	-612
boa	-613
▁le	-614
▁B	-615
▁ɔte	-616
▁wɔre	-617
twe	-618
asamoah	-619
ɛnna	-620
▁dua	-621
kum	-622
onya	-623
▁berɛ	-624
▁la	-625
Saa	-626
▁ɔne	-627
▁baabi	-628
▁abɔ	-629
▁taa	-630
▁biako	-631
▁mfiri	-632
▁c	-633
▁fu	-634
▁nsam	-635
▁werɛ	-636
▁nnan	-637
▁wɔwɔ	-638
▁mmienu	-639
fu	-640
▁metumi	-641
sii	-642
ulo	-643
▁yere	-644
le	-645
won	-646
▁afɔre	-647
Wu	-648
hene	-649
twa	-650
▁ng	-651
▁susuw	-652
▁kyerɛw	-653
kwabena	-654
ban	-655
▁akoma	-656
▁ɛbɛyɛ	-657
▁asu	-658
sei	-659
onhom	-660
▁abusua	-661
▁afa	-662
▁mmɔden	-663
▁afo	-664
▁ia	-665
▁som	-666
▁wore	-667
nanso	-668
▁betumi	-669
ris	-670
▁ogya	-671
▁wɔka	-672
▁ɛtɔ	-673
▁tan	-674
▁ahen	-675
esei	-676
▁agye	-677
▁atwa	-678
▁wubetumi	-679
▁ntumi	-680
▁afei	-681
kye	-682
aman	-683
▁bisaa	-684
▁nkurɔ	-685
ɔpa	-686
▁im	-687
▁krataa	-688
risto	-689
▁nyansa	-690
▁meka	-691
▁honhom	-692
▁mfi	-693
▁kristo	-694
▁ee	-695
▁in	-696
▁wowɔ	-697
st	-698
▁frɛ	-699
▁tra	-700
dwo	-701
▁anya	-702
▁israelfoɔ	-703
yehyɛ	-704
▁suro	-705
▁abi	-706
▁awo	-707
hunu	-708
nni	-709
▁kete	-710
▁fe	-711
▁nnim	-712
▁pan	-713
▁awie	-714
▁mmo	-715
▁raa	-716
bɔɔ	-717
▁pɛn	-718
▁soro	-719
wɛn	-720
▁mpan	-721
▁ahu	-722
▁edi	-723
▁emu	-724
▁huu	-725
▁bepɔ	-726
▁wura	-727
▁ɔkwan	-728
▁tia	-729
po	-730
▁sane	-731
▁yam	-732
▁aduon	-733
▁asi	-734
▁anɔpa	-735
huu	-736
▁ahorow	-737
▁nsuo	-738
▁odi	-739
▁ago	-740
▁obe	-741
li	-742
▁abien	-743
▁nkuro	-744
▁dwe	-745
▁anom	-746
▁mmom	-747
▁wɔan	-748
▁guu	-749
▁ahoɔ	-750
▁agu	-751
▁mmaa	-752
onyam	-753
▁wiase	-754
uonyam	-755
▁abena	-756
▁haw	-757
▁bɛba	-758
fie	-759
▁osu	-760
▁baanu	-761
▁nnom	-762
▁seɛ	-763
▁nkon	-764
umu	-765
▁die	-766
▁ru	-767
▁tua	-768
▁kɛseɛ	-769
dɛn	-770
hwe	-771
▁deda	-772
▁nkutoo	-773
▁sra	-774
▁wɔte	-775
▁ɔhaw	-776
hia	-777
▁apa	-778
▁awia	-779
enee	-780
▁asom	-781
▁mewɔ	-782
▁ɔbaa	-783
yesu	-784
▁aseɛ	-785
▁atifi	-786
nuu	-787
▁nhyehyɛ	-788
▁brɛ	-789
▁F	-790
▁duru	-791
ɛyɛ	-792
ranse	-793
▁adan	-794
▁amanaman	-795
Ne	-796
Eyi	-797
▁gi	-798
▁afu	-799
▁mogya	-800
▁aduane	-801
soɔ	-802
he	-803
▁tɛ	-804
▁kyi	-805
▁tɔɔ	-806
▁wom	-807
▁koro	-808
la	-809
▁han	-810
▁pi	-811
▁ware	-812
du	-813
▁dodow	-814
▁nto	-815
▁dedaw	-816
rew	-817
▁bisa	-818
▁mepɛ	-819
▁adaka	-820
▁kyerɛkyerɛ	-821
▁gua	-822
▁ben	-823
▁nte	-824
▁ahan	-825
▁siesie	-826
▁bae	-827
▁ɔkye	-828
▁ɔpɛ	-829
▁tiri	-830
inom	-831
yɛfo	-832
enkan	-833
▁mfom	-834
▁ɔsoro	-835
▁ban	-836
▁ntoma	-837
▁beb	-838
Misusuw	-839
▁mpɛ	-840
▁ata	-841
ston	-842
▁um	-843
▁nom	-844
▁nwo	-845
▁ɔkɔ	-846
mmɔ	-847
▁aboa	-848
▁adua	-849
▁dwo	-850
▁tuu	-851
▁wɔf	-852
▁yie	-853
wonwa	-854
▁yii	-855
▁abufu	-856
▁ahoɔden	-857
▁owu	-858
▁J	-859
ɛsɛ	-860
hyia	-861
▁agyan	-862
yare	-863
▁ane	-864
mp	-865
▁nkoa	-866
yira	-867
▁asɛ	-868
▁nye	-869
▁ɛre	-870
▁foro	-871
▁yin	-872
▁mfra	-873
enti	-874
▁nkurɔfo	-875
mmu	-876
tan	-877
▁mfomso	-878
▁nipa	-879
▁kurow	-880
▁tew	-881
ke	-882
mepɛ	-883
▁mmi	-884
▁sɛn	-885
▁basa	-886
▁kwabena	-887
▁li	-888
▁wim	-889
▁saulo	-890
▁nhu	-891
▁bebree	-892
▁nhyehyɛe	-893
▁tenten	-894
wɔn	-895
▁pon	-896
▁ahyia	-897
▁bɛka	-898
seɛ	-899
▁dane	-900
▁nuanom	-901
Nea	-902
▁frɛɛ	-903
▁ɔkyena	-904
▁nnua	-905
▁0	-906
▁ɛda	-907
▁ɔyɛɛ	-908
▁H	-909
awu	-910
kaa	-911
▁rɛ	-912
▁atɔ	-913
▁woɔ	-914
▁aban	-915
▁nnamfo	-916
▁gyi	-917
▁ahem	-918
pɛn	-919
suo	-920
ɔho	-921
awurade	-922
suafo	-923
▁woka	-924
▁asomdwo	-925
onini	-926
▁hi	-927
▁kuw	-928
▁yei	-929
▁nwoma	-930
▁dɛ	-931
nkum	-932
▁dw	-933
▁abra	-934
fei	-935
no	-936
▁mfonini	-937
▁ana	-938
▁yɛa	-939
▁mene	-940
▁yako	-941
▁yɛbɛ	-942
▁sal	-943
▁maame	-944
▁fra	-945
▁ran	-946
▁bɛma	-947
▁nsra	-948
▁rɔ	-949
▁nson	-950
▁sene	-951
yeɛ	-952
▁mmra	-953
▁dwetɛ	-954
nye	-955
▁akyɛ	-956
kyia	-957
yiaa	-958
▁twaa	-959
▁tow	-960
▁wobe	-961
▁asɔre	-962
bukyia	-963
▁afɔrebukyia	-964
son	-965
▁mete	-966
▁akoa	-967
ome	-968
kuo	-969
▁duu	-970
▁gyidi	-971
▁ɔsɔfoɔ	-972
▁misusuw	-973
ria	-974
▁hyɛn	-975
Obiara	-976
▁Kwaku	-977
ue	-978
afei	-979
▁aha	-980
▁ɛde	-981
▁twɛn	-982
▁ga	-983
irika	-984
▁apam	-985
▁atɛn	-986
▁mɛyɛ	-987
▁nkonim	-988
eyi	-989
▁yaa	-990
▁wube	-991
▁nnwan	-992
kyi	-993
▁mmirika	-994
ɔnten	-995
▁apon	-996
mon	-997
▁yaw	-998
▁pɔ	-999
▁dɔm	-1000
▁mpae	-1001
ɛsa	-1002
▁ahe	-1003
▁kɔn	-1004
▁abiɛsa	-1005
ɔso	-1006
▁ree	-1007
▁amma	-1008
▁dwom	-1009
▁yare	-1010
ɛno	-1011
▁yakob	-1012
ware	-1013
▁gyae	-1014
▁mpem	-1015
▁agyanom	-1016
rɔn	-1017
▁ɔba	-1018
▁oa	-1019
▁abɛ	-1020
▁lewi	-1021
iriw	-1022
▁adɔ	-1023
▁mmua	-1024
▁E	-1025
Ɛnyɛ	-1026
▁atemmu	-1027
▁hwan	-1028
▁ɔkaa	-1029
▁(	-1030
tie	-1031
▁bra	-1032
▁sim	-1033
▁Franse	-1034
▁ɔdɔ	-1035
▁abofra	-1036
san	-1037
▁mmɛ	-1038
twaa	-1039
▁rekɔ	-1040
▁Bo	-1041
▁ki	-1042
▁aku	-1043
tra	-1044
▁nhwi	-1045
ɔma	-1046
▁ngo	-1047
▁sini	-1048
▁keteke	-1049
▁1	-1050
▁ɔbo	-1051
▁ɛse	-1052
▁twi	-1053
Sɛ́	-1054
▁adɛn	-1055
▁wɔne	-1056
▁adidi	-1057
▁ɔbɔ	-1058
▁wɔmfa	-1059
▁aduonu	-1060
▁ntomadan	-1061
▁aaron	-1062
mo	-1063
▁afoforo	-1064
Mintumi	-1065
▁adamfo	-1066
▁asuafo	-1067
▁asɔfoɔ	-1068
pan	-1069
pe	-1070
▁ngu	-1071
▁ɛma	-1072
▁nwonwa	-1073
iria	-1074
ɛnsa	-1075
▁nnu	-1076
▁mmerɛ	-1077
▁kenkan	-1078
sia	-1079
▁dum	-1080
▁ɛnsɛ	-1081
▁wɔfrɛ	-1082
▁agoru	-1083
▁atwam	-1084
▁iɛ	-1085
▁sam	-1086
▁gyaa	-1087
▁mmiɛnsa	-1088
▁sum	-1089
tow	-1090
▁aye	-1091
twaam	-1092
▁mihu	-1093
▁soma	-1094
▁etwaam	-1095
▁rentumi	-1096
▁mekɔ	-1097
▁mfeɛ	-1098
▁nnwom	-1099
▁anaasɛ	-1100
▁atoro	-1101
Ɔde	-1102
▁kɛ	-1103
kwaku	-1104
lis	-1105
wane	-1106
▁buu	-1107
▁nno	-1108
▁yan	-1109
▁ɔko	-1110
▁mmusua	-1111
▁panyin	-1112
▁ge	-1113
▁ɔfa	-1114
▁ɛhɔ	-1115
▁ɛso	-1116
▁nnɔn	-1117
▁mobɛ	-1118
▁awiei	-1119
Mɛ	-1120
ase	-1121
▁kɔkɔɔ	-1122
Yɛn	-1123
Ɔyɛ	-1124
▁kɔe	-1125
▁mun	-1126
▁nee	-1127
▁etwa	-1128
▁tebea	-1129
▁ɔse	-1130
▁nsɛ	-1131
Minim	-1132
▁ahwɛ	-1133
▁hyeɛ	-1134
▁atade	-1135
tena	-1136
yifoɔ	-1137
▁pono	-1138
▁amane	-1139
▁siane	-1140
▁ahenn	-1141
▁tenaa	-1142
▁didi	-1143
▁ɔdan	-1144
▁nsraban	-1145
▁kakraa	-1146
▁koma	-1147
▁reba	-1148
▁ɛnte	-1149
▁salom	-1150
▁oo	-1151
▁awɔ	-1152
▁mmere	-1153
▁mama	-1154
▁tiaa	-1155
▁wadi	-1156
▁filis	-1157
▁akyire	-1158
▁tuo	-1159
▁mɛma	-1160
▁nkran	-1161
▁salomo	-1162
twie	-1163
▁boɔ	-1164
▁home	-1165
▁nyaa	-1166
obiara	-1167
▁Boston	-1168
▁ahemfo	-1169
▁seesei	-1170
▁aduasa	-1171
ɛnyɛ	-1172
▁agyina	-1173
▁obetumi	-1174
Ɛno	-1175
some	-1176
▁ɔbea	-1177
Mere	-1178
▁ɛne	-1179
esiane	-1180
apan	-1181
▁hunuu	-1182
▁atamfo	-1183
▁yeinom	-1184
▁hui	-1185
▁momfa	-1186
▁wobɛyɛ	-1187
bel	-1188
▁awe	-1189
▁brɛɛ	-1190
▁hwɛɛ	-1191
▁!	-1192
▁ua	-1193
ruwa	-1194
▁bɛkɔ	-1195
▁wui	-1196
raman	-1197
▁yɛde	-1198
▁agua	-1199
ga	-1200
▁od	-1201
wehwɛ	-1202
▁ahɔho	-1203
▁kyere	-1204
nt	-1205
Hena	-1206
hwerew	-1207
▁aware	-1208
▁begye	-1209
▁mayɛ	-1210
▁babel	-1211
▁gyinae	-1212
▁nsi	-1213
▁pɔn	-1214
▁srɛ	-1215
rao	-1216
▁wɔkɔ	-1217
▁woo	-1218
▁kura	-1219
▁farao	-1220
bɔne	-1221
▁sia	-1222
kɛ	-1223
daa	-1224
▁mframa	-1225
▁trɛ	-1226
▁adwa	-1227
▁C	-1228
▁kɛkɛ	-1229
▁mũ	-1230
▁atu	-1231
▁kuo	-1232
▁owia	-1233
▁wunim	-1234
ham	-1235
ruu	-1236
Mesrɛ	-1237
▁meren	-1238
Fa	-1239
ɔfo	-1240
▁kɔsi	-1241
▁monn	-1242
▁nhia	-1243
▁akɛse	-1244
▁ɔma	-1245
▁nnum	-1246
▁gyinaa	-1247
▁abraham	-1248
▁anuonyam	-1249
▁ɔf	-1250
nnipa	-1251
▁ɔmfa	-1252
▁ahennie	-1253
▁tenabea	-1254
mme	-1255
duru	-1256
kasa	-1257
▁wee	-1258
▁agyapa	-1259
▁animuonyam	-1260
Ka	-1261
▁2	-1262
yii	-1263
▁anw	-1264
dua	-1265
tɔɔ	-1266
numu	-1267
▁kora	-1268
▁tene	-1269
▁j	-1270
nipa	-1271
▁bobe	-1272
▁korɔ	-1273
kyɛ	-1274
▁mfu	-1275
▁dwane	-1276
▁mmerɛw	-1277
Sɛn	-1278
sifo	-1279
▁ayi	-1280
▁benya	-1281
Ye	-1282
▁eye	-1283
▁ebia	-1284
▁nkye	-1285
▁wɔren	-1286
kyerɛfo	-1287
▁ɛfa	-1288
▁anyɛ	-1289
▁hyiaa	-1290
mɛ	-1291
Minnim	-1292
▁nnoɔma	-1293
hn	-1294
Yɛsrɛ	-1295
▁aduru	-1296
▁asomdwoeɛ	-1297
forɔ	-1298
tifoɔ	-1299
▁minim	-1300
▁anyame	-1301
▁lewifoɔ	-1302
▁filistifoɔ	-1303
ben	-1304
Sɛnea	-1305
▁buaa	-1306
▁onni	-1307
▁anwum	-1308
sef	-1309
mmaa	-1310
▁pae	-1311
▁hann	-1312
▁ɔmaa	-1313
▁ahome	-1314
▁yudafo	-1315
mom	-1316
▁momma	-1317
▁yosef	-1318
▁foforɔ	-1319
▁apontow	-1320
Ɛhe	-1321
sram	-1322
▁toa	-1323
▁ɔren	-1324
tro	-1325
Men	-1326
mmarima	-1327
▁basafa	-1328
tire	-1329
▁hyew	-1330
mere	-1331
▁dea	-1332
▁wira	-1333
▁nnansa	-1334
▁nkrantɛ	-1335
wam	-1336
▁is	-1337
Mewɔ	-1338
▁ɔda	-1339
▁nkaeɛ	-1340
▁ananmu	-1341
▁ɔfiri	-1342
▁kraman	-1343
kora	-1344
▁ɛkɔ	-1345
Kwasi	-1346
▁twam	-1347
▁wodi	-1348
▁gyinabea	-1349
bɛn	-1350
woo	-1351
▁anida	-1352
▁esiane	-1353
▁aboɔ	-1354
aw	-1355
▁nkɔmmɔ	-1356
ɔde	-1357
▁nnɔ	-1358
▁dodoɔ	-1359
kia	-1360
teɛ	-1361
misusuw	-1362
Mempɛ	-1363
Nnipa	-1364
▁mehu	-1365
▁dwiriw	-1366
onam	-1367
▁ɛpo	-1368
▁ɔhyeɛ	-1369
▁"	-1370
▁fuw	-1371
▁nifa	-1372
▁yera	-1373
▁nnyina	-1374
lah	-1375
▁nnya	-1376
▁reyɛ	-1377
bɛyɛ	-1378
▁kane	-1379
kyerɛw	-1380
▁bosome	-1381
▁kuruwa	-1382
yu	-1383
▁)	-1384
▁isa	-1385
▁ntɔ	-1386
▁ɔhwɛ	-1387
▁mmofra	-1388
Se	-1389
omm	-1390
▁anu	-1391
▁sɛɛ	-1392
▁ɔdi	-1393
▁mode	-1394
Esiane	-1395
▁Ho	-1396
▁tete	-1397
nom	-1398
▁bua	-1399
▁Japan	-1400
▁ɔbɛyɛ	-1401
▁adagye	-1402
gua	-1403
wen	-1404
hyɛɛ	-1405
▁ebe	-1406
▁bɔɔl	-1407
iribiara	-1408
▁T	-1409
fon	-1410
tia	-1411
umuyɛ	-1412
▁kunu	-1413
▁ntea	-1414
▁wote	-1415
▁nkyerɛkyerɛ	-1416
▁En	-1417
▁tɔn	-1418
▁mmea	-1419
▁tele	-1420
▁mmepɔ	-1421
▁yosua	-1422
▁ɛdeɛn	-1423
▁minnim	-1424
Wubetumi	-1425
▁adagyew	-1426
Man	-1427
sea	-1428
▁ron	-1429
▁awɔw	-1430
▁mpanim	-1431
▁nuabea	-1432
▁aduonum	-1433
hyɛn	-1434
▁tii	-1435
▁ɛdi	-1436
▁midi	-1437
▁yɛwɔ	-1438
▁dɔɔso	-1439
die	-1440
Mede	-1441
▁woan	-1442
▁tenenee	-1443
▁S	-1444
▁nhyɛ	-1445
▁yerɛ	-1446
fɛ	-1447
ohn	-1448
▁ɔp	-1449
yiam	-1450
▁bue	-1451
▁yɛyɛ	-1452
▁amumuyɛ	-1453
▁abusuakuo	-1454
ret	-1455
▁wen	-1456
▁wuo	-1457
pɔmma	-1458
rimaa	-1459
▁yeho	-1460
seɛnam	-1461
▁mfaso	-1462
▁abe	-1463
▁siga	-1464
nɛ	-1465
sɛnea	-1466
▁kosi	-1467
▁susu	-1468
Seesei	-1469
▁awerɛ	-1470
▁mmuae	-1471
ano	-1472
▁fɔ	-1473
▁ntu	-1474
▁turo	-1475
▁baabiara	-1476
Migye	-1477
pɔnkɔ	-1478
▁mpɛn	-1479
▁adanse	-1480
▁pam	-1481
▁anni	-1482
▁asiane	-1483
▁akwanhyia	-1484
win	-1485
kwan	-1486
▁esi	-1487
▁akye	-1488
▁sisi	-1489
▁wudi	-1490
▁wuhu	-1491
▁dapɛn	-1492
kra	-1493
korabea	-1494
▁go	-1495
mmea	-1496
▁apue	-1497
▁kɔfe	-1498
▁nkyɛ	-1499
▁mpaboa	-1500
resi	-1501
▁kyin	-1502
▁ayare	-1503
▁paulo	-1504
▁ɛserɛ	-1505
▁nimdeɛ	-1506
▁Aku	-1507
▁honam	-1508
▁apɔnkɔ	-1509
▁dwumadi	-1510
▁mmammaa	-1511
▁nkra	-1512
▁ɛnna	-1513
▁wɔtwe	-1514
▁afiase	-1515
▁agyapadeɛ	-1516
▁yoa	-1517
▁efie	-1518
▁moyɛ	-1519
▁ntoa	-1520
▁K	-1521
fii	-1522
tua	-1523
Ɛte	-1524
▁eli	-1525
▁yor	-1526
▁tirim	-1527
▁twerɛ	-1528
▁ɔsram	-1529
▁wokɔ	-1530
▁apono	-1531
▁nhyira	-1532
nn	-1533
▁ofi	-1534
▁ɛba	-1535
Minni	-1536
▁son	-1537
kyiri	-1538
▁nhwɛ	-1539
▁baasa	-1540
▁mmɔbɔ	-1541
▁kunkum	-1542
▁nhwiren	-1543
▁lo	-1544
▁nke	-1545
▁asie	-1546
▁kwaku	-1547
▁yordan	-1548
An	-1549
mpren	-1550
bɔnten	-1551
▁nhyiam	-1552
▁telefon	-1553
▁asɔredan	-1554
▁dɔn	-1555
▁kai	-1556
temaa	-1557
▁boaa	-1558
▁momm	-1559
▁sere	-1560
kyeree	-1561
▁nante	-1562
ɔnko	-1563
radeɛ	-1564
▁abufuo	-1565
▁asɛmpa	-1566
▁mpataa	-1567
pɛɛ	-1568
▁rɛɛ	-1569
renee	-1570
▁moan	-1571
▁mintumi	-1572
▁kyerɛkyerɛfo	-1573
▁es	-1574
pɛɛpɛ	-1575
▁moab	-1576
▁Holah	-1577
▁anomu	-1578
▁mpena	-1579
▁paano	-1580
▁yɔnko	-1581
▁pɛpɛɛpɛ	-1582
▁adidibea	-1583
▁akyirikyiri	-1584
gi	-1585
wadeɛ	-1586
▁wayɛ	-1587
▁anidaso	-1588
▁D	-1589
hwam	-1590
▁bɔs	-1591
▁baeɛ	-1592
▁yɛre	-1593
▁ɔhyɛ	-1594
▁kɔsii	-1595
▁afuw	-1596
▁meda	-1597
asɛm	-1598
umfoɔ	-1599
▁ampa	-1600
▁menyɛ	-1601
▁monyɛ	-1602
oni	-1603
▁suo	-1604
▁ɛka	-1605
▁wiei	-1606
▁fitaa	-1607
▁ntadeɛ	-1608
▁paanoo	-1609
ɛhe	-1610
▁bepɔw	-1611
▁wene	-1612
inta	-1613
▁kyɛw	-1614
▁ɔnam	-1615
Ɛho	-1616
▁nkɔm	-1617
▁wiee	-1618
▁wɔfa	-1619
▁sotɔɔ	-1620
▁akyɛde	-1621
▁wɔfiri	-1622
▁ahyɛdeɛ	-1623
gu	-1624
▁yen	-1625
▁John	-1626
▁apem	-1627
▁hyehyɛ	-1628
dom	-1629
▁ntwe	-1630
▁babaa	-1631
▁kamfo	-1632
▁simma	-1633
▁anantwie	-1634
efi	-1635
tee	-1636
▁komm	-1637
▁ɔnyɛ	-1638
nunkum	-1639
▁asekyerɛ	-1640
▁asubɔnten	-1641
dɔm	-1642
▁ie	-1643
▁atia	-1644
▁mɛkɔ	-1645
▁ɔyare	-1646
▁ɛbɛba	-1647
▁ɛnneɛ	-1648
▁ahinta	-1649
▁akwantu	-1650
▁nuabarima	-1651
▁Y	-1652
Wɔde	-1653
▁ene	-1654
▁nsɛn	-1655
▁onim	-1656
▁faako	-1657
▁nsusuw	-1658
doɔ	-1659
▁em	-1660
onhwa	-1661
▁ɛnam	-1662
adwene	-1663
▁guare	-1664
▁antumi	-1665
▁apueeɛ	-1666
▁ontumi	-1667
▁nse	-1668
tenaa	-1669
▁ankɔ	-1670
▁gyaw	-1671
▁hena	-1672
▁awerɛho	-1673
Hwɛ	-1674
▁bet	-1675
▁bom	-1676
▁fɛw	-1677
▁bedi	-1678
▁bɛbɔ	-1679
▁ɛren	-1680
▁wimhyɛn	-1681
▁koto	-1682
▁ɛyɛɛ	-1683
▁serew	-1684
▁mmapɔmma	-1685
▁bɛto	-1686
▁guan	-1687
▁woda	-1688
rempren	-1689
▁ketewa	-1690
▁akwa	-1691
▁amon	-1692
▁boro	-1693
▁yebe	-1694
▁ntade	-1695
▁mpanyin	-1696
▁sigaret	-1697
▁benyamin	-1698
ona	-1699
▁ɔsa	-1700
▁esii	-1701
▁wɔbɔ	-1702
▁ɔpon	-1703
▁kronkronbea	-1704
mintumi	-1705
▁ahodoɔ	-1706
▁yebetumi	-1707
Ade	-1708
▁elia	-1709
▁sesa	-1710
▁ɔkwa	-1711
hane	-1712
▁wun	-1713
▁afie	-1714
▁duro	-1715
▁yona	-1716
▁ɔdii	-1717
giresi	-1718
oatemaa	-1719
ek	-1720
▁ohu	-1721
▁woayɛ	-1722
▁asɛe	-1723
▁asɔfo	-1724
▁ɛkyerɛ	-1725
▁ɔkraman	-1726
onyankopɔn	-1727
▁ɔbɔɔ	-1728
▁akɔsi	-1729
▁ayɛyɛ	-1730
▁hoa	-1731
▁anum	-1732
brɛ	-1733
▁atra	-1734
▁bɛtɔ	-1735
▁woma	-1736
▁wɔnyɛ	-1737
Meyɛ	-1738
yifo	-1739
▁ɔden	-1740
▁awofo	-1741
▁onnim	-1742
▁boston	-1743
▁Boatemaa	-1744
Po	-1745
▁ɛto	-1746
▁traa	-1747
▁minni	-1748
▁yohane	-1749
▁ayaresa	-1750
kyerɛkyerɛfo	-1751
▁mom	-1752
▁tam	-1753
▁mfoɔ	-1754
▁ɔkɔɔ	-1755
▁panin	-1756
▁ahenni	-1757
▁nipadua	-1758
Mma	-1759
Wɔn	-1760
aan	-1761
tene	-1762
▁obu	-1763
fraim	-1764
nhyia	-1765
▁adom	-1766
▁nsase	-1767
▁petro	-1768
▁efraim	-1769
▁abarimaa	-1770
▁v	-1771
▁pɛɛ	-1772
hwehwɛ	-1773
▁nnebɔne	-1774
▁’	-1775
ntɛm	-1776
▁somaa	-1777
▁wɔayɛ	-1778
▁nkurɔfoɔ	-1779
▁odiyifoɔ	-1780
▁nnɔnhwerew	-1781
sɛe	-1782
toa	-1783
Ebia	-1784
benya	-1785
adwuma	-1786
kyerɛn	-1787
▁binom	-1788
▁ɔbɛma	-1789
▁kanaan	-1790
▁asafohene	-1791
▁mmammarima	-1792
mesrɛ	-1793
minim	-1794
▁aduɔ	-1795
▁asefoɔ	-1796
▁mfrafra	-1797
▁ayɛyɛdeɛ	-1798
▁mfirinhyia	-1799
Ɔwɔ	-1800
hena	-1801
sane	-1802
▁see	-1803
▁ahum	-1804
▁awoɔ	-1805
▁pere	-1806
▁wama	-1807
▁ɔbɛba	-1808
▁nnwuma	-1809
hɔ	-1810
▁fom	-1811
▁mpoano	-1812
nso	-1813
mede	-1814
▁pia	-1815
wɔtwe	-1816
▁ahia	-1817
▁maka	-1818
▁ɔkae	-1819
▁abufuw	-1820
▁kɔbere	-1821
▁asomdwoe	-1822
▁mfrafraeɛ	-1823
horo	-1824
▁ogye	-1825
▁sion	-1826
duruyɛfo	-1827
▁anibere	-1828
▁nsusuwii	-1829
▁mprempren	-1830
▁nsɛnkyerɛn	-1831
hi	-1832
▁I	-1833
kae	-1834
mienu	-1835
▁mese	-1836
▁more	-1837
▁dwene	-1838
boam	-1839
▁wɔnam	-1840
▁wɔyɛɛ	-1841
▁barima	-1842
▁dummienu	-1843
▁akyiwadeɛ	-1844
mia	-1845
▁ok	-1846
kame	-1847
wɔde	-1848
▁ahi	-1849
▁soa	-1850
▁bɛsi	-1851
▁mpɔn	-1852
▁mɛka	-1853
▁ntɛmntɛm	-1854
nen	-1855
▁ini	-1856
▁ntaa	-1857
▁onya	-1858
▁hyiae	-1859
▁Engiresi	-1860
▁mpanimfoɔ	-1861
sɔ	-1862
kre	-1863
ɔno	-1864
▁heb	-1865
▁ome	-1866
▁sɔɔ	-1867
▁toɔ	-1868
▁ɔto	-1869
▁mmrɛ	-1870
▁ɔfaa	-1871
▁akasa	-1872
▁atena	-1873
▁kyɛfa	-1874
▁wonni	-1875
▁kyeree	-1876
▁abɔnten	-1877
yam	-1878
▁dun	-1879
▁pem	-1880
▁atua	-1881
▁ntwa	-1882
▁sare	-1883
▁nkasa	-1884
▁woadi	-1885
▁asiria	-1886
▁franse	-1887
▁yeremia	-1888
Su	-1889
▁nsɔ	-1890
▁pue	-1891
▁ason	-1892
▁tire	-1893
▁yoab	-1894
▁akron	-1895
▁afahyɛ	-1896
▁ntoatoa	-1897
yo	-1898
▁ar	-1899
▁ot	-1900
▁wɔnn	-1901
▁yɛne	-1902
▁bɛhyɛ	-1903
▁wɔnni	-1904
▁atitire	-1905
▁ebetumi	-1906
▁/	-1907
uel	-1908
Meda	-1909
▁wia	-1910
▁ɔtɔ	-1911
efisɛ	-1912
romma	-1913
▁fɛfɛ	-1914
▁ɛdan	-1915
▁aniwa	-1916
▁ɔdefo	-1917
▁manase	-1918
▁ahyiaeɛ	-1919
▁nteaseɛnam	-1920
eni	-1921
▁yɛe	-1922
▁adum	-1923
▁beae	-1924
▁besi	-1925
▁samuel	-1926
▁ahintasɛm	-1927
Ɛbɛyɛ	-1928
▁sɛee	-1929
▁sɔhwɛ	-1930
▁ɔbɛka	-1931
▁adiyifoɔ	-1932
amm	-1933
hoa	-1934
rika	-1935
▁dom	-1936
▁wɛn	-1937
▁redi	-1938
▁ɔtoo	-1939
▁wunni	-1940
▁ɛrekɔ	-1941
▁mununkum	-1942
Da	-1943
Nsu	-1944
lead	-1945
▁ɔpa	-1946
gyina	-1947
▁wɔdi	-1948
▁wɔso	-1949
▁duruu	-1950
▁anafoɔ	-1951
▁gilead	-1952
▁nnomaa	-1953
ade	-1954
omma	-1955
sɔre	-1956
wenn	-1957
▁noa	-1958
▁rim	-1959
kyere	-1960
▁nnwon	-1961
▁waree	-1962
▁ɔrekɔ	-1963
▁hokwan	-1964
▁trenee	-1965
▁ɛhe	-1966
▁akum	-1967
minnim	-1968
yinnye	-1969
▁yansa	-1970
▁adesua	-1971
▁oduruyɛfo	-1972
wini	-1973
▁uro	-1974
▁ɔta	-1975
neɛma	-1976
▁nsia	-1977
▁babea	-1978
▁mempɛ	-1979
▁mmɔbo	-1980
▁sakre	-1981
▁nana	-1982
▁rebɔ	-1983
▁wɔpɛ	-1984
▁siria	-1985
▁akɛseɛ	-1986
dea	-1987
misa	-1988
▁sei	-1989
maria	-1990
Ɛkame	-1991
▁edom	-1992
▁rebɛ	-1993
▁adane	-1994
▁sisii	-1995
▁ahɔhodan	-1996
ɔyɛ	-1997
berɛ	-1998
Ɛnsɛ	-1999
▁tim	-2000
hyiaa	-2001
▁adwe	-2002
▁amfa	-2003
▁ayam	-2004
▁isak	-2005
▁kɔkɔ	-2006
▁ɔmpɛ	-2007
▁nkogu	-2008
▁wugye	-2009
▁wɔadi	-2010
wennini	-2011
▁ɔkyerɛkyerɛfo	-2012
▁0.	-2013
nkwa	-2014
▁ayu	-2015
Mihuu	-2016
▁wono	-2017
▁afena	-2018
▁monkɔ	-2019
▁wohwɛ	-2020
▁wɔbɔɔ	-2021
▁wɔkɔɔ	-2022
▁akatua	-2023
▁anuanom	-2024
▁foforow	-2025
▁hua	-2026
▁pɔw	-2027
mempɛ	-2028
▁ehia	-2029
▁hese	-2030
▁safe	-2031
ranteɛ	-2032
▁ntama	-2033
▁wompɛ	-2034
▁asetra	-2035
▁ankyerɛ	-2036
fee	-2037
kuw	-2038
mum	-2039
▁asuo	-2040
▁baal	-2041
▁mprɛ	-2042
▁abɔne	-2043
▁menkɔ	-2044
▁ɔhyɛɛ	-2045
▁lisifo	-2046
Won	-2047
huru	-2048
▁nant	-2049
▁ɔtwe	-2050
▁nwini	-2051
Wususuw	-2052
▁dae	-2053
▁nwu	-2054
raafo	-2055
▁nhyia	-2056
▁yɛnkɔ	-2057
▁anwonwa	-2058
▁hesekia	-2059
▁nsoromma	-2060
▁-	-2061
▁3	-2062
▁ce	-2063
woda	-2064
▁mena	-2065
▁ohuu	-2066
▁mihuu	-2067
▁pefee	-2068
▁ahantan	-2069
▁ayaresabea	-2070
korɛ	-2071
▁bag	-2072
▁nyi	-2073
saman	-2074
▁Kwasi	-2075
▁denne	-2076
▁mehwɛ	-2077
▁yonatan	-2078
▁nnebɔneyɛfo	-2079
▁:	-2080
onipa	-2081
▁homa	-2082
▁kata	-2083
▁ɛbaa	-2084
▁sorɔn	-2085
▁asaman	-2086
▁bonhwa	-2087
▁nokorɛ	-2088
▁wobɛka	-2089
▁samaria	-2090
▁adwumayɛ	-2091
Mfa	-2092
▁ehu	-2093
▁kumm	-2094
▁odii	-2095
▁yehu	-2096
▁asoma	-2097
▁ɔhɔho	-2098
▁mmaako	-2099
▁amanneɛ	-2100
▁5	-2101
obi	-2102
Mete	-2103
▁fua	-2104
▁mpe	-2105
▁ɔhye	-2106
▁awufo	-2107
▁memaa	-2108
▁mmɔne	-2109
▁sanku	-2110
▁mitumi	-2111
▁sradeɛ	-2112
▁nkrataa	-2113
▁kyerɛwsɛm	-2114
▁er	-2115
merɛ	-2116
amfoɔ	-2117
▁medi	-2118
▁onii	-2119
▁atamfoɔ	-2120
▁TV	-2121
mewɔ	-2122
pono	-2123
▁hwie	-2124
Nneɛma	-2125
▁abere	-2126
▁woren	-2127
▁hwehwɛɛ	-2128
▁P	-2129
basa	-2130
boro	-2131
▁ono	-2132
▁akon	-2133
▁ɔsomaa	-2134
▁nananom	-2135
▁amanehunu	-2136
lia	-2137
fusu	-2138
soro	-2139
stra	-2140
Ɔyɛɛ	-2141
Kwame	-2142
▁madi	-2143
▁mebɔ	-2144
▁mube	-2145
▁yɛan	-2146
▁ɔnni	-2147
▁hyira	-2148
▁manya	-2149
▁nkoto	-2150
▁obedi	-2151
▁wɔwoo	-2152
▁ɔbɛkɔ	-2153
stralia	-2154
▁benkum	-2155
▁aduanan	-2156
▁anigyeɛ	-2157
▁ntoatoasoɔ	-2158
▁G	-2159
▁wɔt	-2160
▁ɛpono	-2161
▁abɔfra	-2162
▁merekɔ	-2163
▁anwummerɛ	-2164
▁O	-2165
Obi	-2166
uta	-2167
woa	-2168
ɛte	-2169
▁ria	-2170
▁woso	-2171
▁akoko	-2172
▁akosi	-2173
▁kurom	-2174
▁mpren	-2175
▁rimaa	-2176
▁wɔaka	-2177
▁ɔkasa	-2178
▁atemmuo	-2179
▁babarima	-2180
▁ram	-2181
▁wam	-2182
▁ɔho	-2183
▁gyei	-2184
▁ɔnom	-2185
biribiara	-2186
▁anwummere	-2187
No	-2188
▁horo	-2189
▁sono	-2190
▁wuwu	-2191
▁wɔse	-2192
▁ɔnkɔ	-2193
▁wiram	-2194
▁nufusu	-2195
▁nnommum	-2196
▁sorɔnso	-2197
▁wususuw	-2198
▁akronkron	-2199
▁dɔnhwerew	-2200
▁mia	-2201
▁nwi	-2202
▁ser	-2203
Abena	-2204
▁apan	-2205
▁mɔne	-2206
▁ofie	-2207
▁asene	-2208
▁wɔkaa	-2209
▁ɔbaako	-2210
▁ahohuru	-2211
▁asraafo	-2212
▁akyinnye	-2213
▁anwonwade	-2214
▁amo	-2215
▁neɛ	-2216
▁tom	-2217
▁ɔhu	-2218
▁ɛkɔm	-2219
winini	-2220
▁basabasa	-2221
kɛse	-2222
▁sea	-2223
▁ahwe	-2224
▁sram	-2225
▁tiee	-2226
eneeni	-2227
▁ahoni	-2228
▁danee	-2229
▁kasae	-2230
▁nneyɛɛ	-2231
▁aduhwam	-2232
▁kunkumm	-2233
▁nkwagye	-2234
▁fã	-2235
ntum	-2236
▁mee	-2237
▁oni	-2238
▁oyi	-2239
▁yero	-2240
▁ɛnne	-2241
▁ɛwom	-2242
▁mprɛn	-2243
▁ntena	-2244
▁ɛfata	-2245
▁homeda	-2246
▁hwɛfoɔ	-2247
▁tuntum	-2248
kyerɛmma	-2249
mputa	-2250
▁anee	-2251
▁asia	-2252
▁ahuhu	-2253
▁hohoro	-2254
Biribiara	-2255
▁kyekyere	-2256
▁yudahene	-2257
▁ira	-2258
▁lon	-2259
▁pin	-2260
kɛseɛ	-2261
tiriw	-2262
▁asaa	-2263
▁adɔeɛ	-2264
▁bɛdii	-2265
▁memfa	-2266
▁bɛtena	-2267
▁mereka	-2268
▁mmusuakuo	-2269
▁tum	-2270
▁ahab	-2271
▁esum	-2272
▁ntoto	-2273
▁sekan	-2274
Wa	-2275
Abɔ	-2276
▁abɛn	-2277
▁bɛdi	-2278
▁mman	-2279
▁nteɛ	-2280
▁pene	-2281
kenkan	-2282
seesei	-2283
▁dadeɛ	-2284
▁monhwɛ	-2285
▁mpomma	-2286
▁wobɛpɛ	-2287
▁mekyerɛ	-2288
▁00	-2289
eawa	-2290
mufo	-2291
aadaa	-2292
▁borɔ	-2293
▁dwen	-2294
▁dwoo	-2295
▁mowɔ	-2296
▁ɛnnɛ	-2297
▁meyɛɛ	-2298
▁otumi	-2299
▁abeawa	-2300
▁bɛboro	-2301
▁kyinii	-2302
▁rekasa	-2303
▁nantwie	-2304
Wun	-2305
asa	-2306
Mpɛn	-2307
▁ere	-2308
renom	-2309
salom	-2310
▁mɛba	-2311
▁gyata	-2312
▁minya	-2313
▁twene	-2314
▁absalom	-2315
▁yudafoɔ	-2316
▁sukyerɛmma	-2317
▁akronkronneɛ	-2318
▁amanamanmufo	-2319
Aba	-2320
▁rɔn	-2321
bɛnto	-2322
duruu	-2323
momma	-2324
▁ahye	-2325
▁ante	-2326
▁asan	-2327
▁bobɔ	-2328
▁daeɛ	-2329
▁dumi	-2330
▁ofii	-2331
▁osua	-2332
▁srɛɛ	-2333
▁ɛdɔm	-2334
▁nguan	-2335
▁ɛsiane	-2336
▁kɔmputa	-2337
▁nkwasea	-2338
▁nnaadaa	-2339
haw	-2340
fide	-2341
▁dia	-2342
▁fon	-2343
▁ɛwo	-2344
migye	-2345
▁bubu	-2346
▁dɔla	-2347
▁sime	-2348
▁ɔmma	-2349
▁abɔfo	-2350
▁monni	-2351
▁mpata	-2352
▁wɔdii	-2353
▁nantew	-2354
▁nkyene	-2355
▁yerenom	-2356
▁awerɛhow	-2357
aba	-2358
eki	-2359
▁ei	-2360
gyae	-2361
toso	-2362
twɛn	-2363
▁kal	-2364
ɛfiri	-2365
▁kyia	-2366
▁kɔka	-2367
▁mmɛn	-2368
▁nebu	-2369
▁nkum	-2370
▁reka	-2371
▁ɛhaw	-2372
▁bɔhyɛ	-2373
▁keeki	-2374
▁kɔmaa	-2375
▁wonim	-2376
▁wɔhyɛ	-2377
▁dumien	-2378
▁nhomakorabea	-2379
▁9	-2380
men	-2381
soa	-2382
▁pu	-2383
Wowɔ	-2384
dane	-2385
▁bel	-2386
▁bem	-2387
▁abrɛ	-2388
▁dabi	-2389
▁waka	-2390
▁wɔmm	-2391
▁wɔto	-2392
▁ɔtaa	-2393
▁wɔmma	-2394
▁wɔnkɔ	-2395
▁mmaran	-2396
▁ahotoso	-2397
▁yeroboam	-2398
▁atemmudeɛ	-2399
▁z	-2400
frɛ	-2401
nya	-2402
▁nha	-2403
▁mema	-2404
▁toto	-2405
▁wone	-2406
▁ɔkɔm	-2407
▁ɔwoo	-2408
yeinom	-2409
▁kosii	-2410
▁mesrɛ	-2411
▁wɔbaa	-2412
▁ntaban	-2413
▁twitwa	-2414
▁ahwehwɛ	-2415
▁agyenkwa	-2416
Nah	-2417
hye	-2418
wii	-2419
Ɛtɔ	-2420
▁lia	-2421
▁Dwoda	-2422
▁korɔn	-2423
robɛnto	-2424
▁mpaebɔ	-2425
▁wobɛkɔ	-2426
▁afifide	-2427
▁nhwehwɛ	-2428
▁titiriw	-2429
hyeɛ	-2430
mfoɔ	-2431
nɔne	-2432
▁ame	-2433
▁tɔe	-2434
yinom	-2435
▁ntra	-2436
▁woakɔ	-2437
▁wɔato	-2438
▁amannɔne	-2439
▁owi	-2440
ammɔn	-2441
▁mfɛn	-2442
▁ɔseɛ	-2443
▁ahanu	-2444
▁asodi	-2445
▁mekae	-2446
▁mente	-2447
▁metee	-2448
▁wɔfaa	-2449
▁wubehu	-2450
▁wɔbɛyɛ	-2451
▁ɔfasuo	-2452
▁nhunumu	-2453
▁asɛmmisa	-2454
wɔa	-2455
ebia	-2456
▁pra	-2457
▁prɛ	-2458
▁funu	-2459
▁hina	-2460
▁siee	-2461
▁yɛfo	-2462
▁atɔeɛ	-2463
▁enkan	-2464
▁menka	-2465
▁migye	-2466
▁woreyɛ	-2467
▁yɛmmea	-2468
▁anammɔn	-2469
▁mmɔborɔ	-2470
▁nnwonto	-2471
▁asamando	-2472
▁sikakorabea	-2473
anka	-2474
gyee	-2475
sɛpɛ	-2476
yimfo	-2477
▁difo	-2478
▁ɔtee	-2479
▁afotu	-2480
▁fuwii	-2481
▁sifoɔ	-2482
▁woahu	-2483
▁yɛnyɛ	-2484
▁ɔsɔfo	-2485
▁nnompe	-2486
▁ahosɛpɛ	-2487
▁ayeforo	-2488
sau	-2489
▁apo	-2490
▁ahod	-2491
▁esau	-2492
▁mika	-2493
▁yɛka	-2494
▁annye	-2495
▁ɛbɛma	-2496
▁abakan	-2497
▁ahonya	-2498
▁asomfo	-2499
▁bɛfiri	-2500
▁yehosa	-2501
▁afɔrebɔ	-2502
▁abufuhyeɛ	-2503
▁mpanyimfo	-2504
ha	-2505
ɛda	-2506
▁ef	-2507
woyɛ	-2508
▁hel	-2509
▁nii	-2510
▁ɔsɛ	-2511
▁enye	-2512
▁renyɛ	-2513
▁ɔtare	-2514
▁afasuo	-2515
▁awieeɛ	-2516
▁woreka	-2517
▁adiyifo	-2518
▁ɔkwasea	-2519
On	-2520
▁ã	-2521
dwoo	-2522
imfo	-2523
sono	-2524
yuda	-2525
▁wii	-2526
▁akan	-2527
▁anhu	-2528
▁enni	-2529
▁hama	-2530
▁mifi	-2531
▁ɔsan	-2532
▁elisa	-2533
▁mahyɛ	-2534
▁nkata	-2535
▁aduaba	-2536
▁nkuran	-2537
▁dwoodwoo	-2538
nes	-2539
sar	-2540
ɔwɔ	-2541
▁mɔ	-2542
wetɛ	-2543
▁dinn	-2544
▁makɔ	-2545
▁nyae	-2546
▁amena	-2547
▁kanea	-2548
▁kyire	-2549
▁minhu	-2550
▁nnɔba	-2551
▁atadeɛ	-2552
▁nnwetɛ	-2553
▁abɔnefoɔ	-2554
▁mmeranteɛ	-2555
mɔne	-2556
nnua	-2557
▁gad	-2558
▁kɔm	-2559
▁mpɔ	-2560
▁rem	-2561
binom	-2562
yinam	-2563
▁adwo	-2564
nessar	-2565
▁akane	-2566
▁prɛko	-2567
▁pɔnkɔ	-2568
▁rehwɛ	-2569
▁wɔkan	-2570
▁ɔbɔne	-2571
▁ɔreka	-2572
▁amamfo	-2573
▁adanseɛ	-2574
nwa	-2575
adɛn	-2576
▁gui	-2577
▁sin	-2578
▁afra	-2579
▁fira	-2580
▁gali	-2581
▁nini	-2582
▁yɛkɔ	-2583
▁akata	-2584
▁nyame	-2585
▁ronya	-2586
▁ɔreyɛ	-2587
▁mereyɛ	-2588
▁montie	-2589
▁abannwa	-2590
▁mmaranimfo	-2591
▁nnwetɛbena	-2592
▁akyerɛkyerɛfo	-2593
bon	-2594
iti	-2595
yei	-2596
▁kyee	-2597
▁mahu	-2598
▁seba	-2599
▁hanan	-2600
▁wokae	-2601
▁wɔrekɔ	-2602
▁amonfoɔ	-2603
er	-2604
▁awɛ	-2605
▁rema	-2606
▁wɔtu	-2607
▁yimi	-2608
▁ɛteɛ	-2609
▁akokɔ	-2610
▁obehu	-2611
▁bɛkasa	-2612
▁kaldea	-2613
▁nwɔtwe	-2614
▁twetia	-2615
▁wɔatwa	-2616
▁aduɔson	-2617
▁nnanson	-2618
▁wubenya	-2619
▁akokoduru	-2620
kad	-2621
kɔm	-2622
sɔn	-2623
▁ii	-2624
▁bal	-2625
▁bena	-2626
▁nkae	-2627
▁popo	-2628
▁toro	-2629
siesie	-2630
▁abisa	-2631
▁atiri	-2632
▁kumaa	-2633
▁maria	-2634
▁wɔayi	-2635
▁wɔmaa	-2636
▁yerɛn	-2637
▁abɔfoɔ	-2638
▁asiesie	-2639
▁nebukad	-2640
▁nebukadnessar	-2641
▁nsɛnkyerɛnneɛ	-2642
ana	-2643
imf	-2644
hora	-2645
▁kuu	-2646
enten	-2647
hunuu	-2648
▁afrɛ	-2649
▁ayuo	-2650
▁okum	-2651
imfini	-2652
rɔmmea	-2653
▁sɔree	-2654
rentumi	-2655
▁ahohia	-2656
▁asaawa	-2657
▁eyinom	-2658
▁ahohora	-2659
▁sorɔnsorɔmmea	-2660
ɛho	-2661
▁ɔsɔ	-2662
▁adwi	-2663
▁keka	-2664
▁moka	-2665
▁munn	-2666
▁wobɔ	-2667
▁ruben	-2668
▁woaka	-2669
▁ɔfrɛɛ	-2670
▁ababaa	-2671
▁daakye	-2672
▁merika	-2673
▁nkuraa	-2674
▁mfunumu	-2675
tew	-2676
▁hat	-2677
▁ɔbu	-2678
▁rɔfo	-2679
▁ɔbon	-2680
▁ɔkra	-2681
▁ɛbɛn	-2682
▁ayera	-2683
▁nnome	-2684
▁wamma	-2685
▁adagya	-2686
▁amfiri	-2687
▁mprenu	-2688
▁nsakra	-2689
▁wɔbɛka	-2690
▁ɔbonsam	-2691
▁ahohiahia	-2692
▁nnyinasoɔ	-2693
yerɛn	-2694
▁fran	-2695
▁keru	-2696
▁nyan	-2697
adamfo	-2698
▁didii	-2699
▁mmɔho	-2700
▁ntease	-2701
▁ahwɛfoɔ	-2702
▁asɛnnua	-2703
▁wɔhunuu	-2704
▁asiriahene	-2705
rae	-2706
tin	-2707
▁wɛ	-2708
meyɛ	-2709
ɛnsɛ	-2710
▁ton	-2711
firim	-2712
tiase	-2713
twerɛ	-2714
▁defo	-2715
▁wufi	-2716
▁yɛte	-2717
▁ɔboa	-2718
▁ɔsom	-2719
▁bobɔɔ	-2720
▁hwɛfo	-2721
▁suafo	-2722
▁ɛreba	-2723
▁yehoia	-2724
fat	-2725
iel	-2726
▁amu	-2727
ɛnneɛ	-2728
▁kɔeɛ	-2729
▁nneyɛ	-2730
▁mfitiase	-2731
▁ustralia	-2732
▁yehosafat	-2733
▁ose	-2734
▁tar	-2735
▁adɔe	-2736
▁akɔn	-2737
▁asua	-2738
▁mɛfa	-2739
▁wofi	-2740
▁yina	-2741
▁ɔyii	-2742
▁ɛmfa	-2743
▁menya	-2744
▁asadeɛ	-2745
▁daniel	-2746
▁afunumu	-2747
anu	-2748
tae	-2749
▁ut	-2750
teaa	-2751
▁kon	-2752
▁nwe	-2753
▁mote	-2754
▁poma	-2755
▁tini	-2756
▁twee	-2757
ankasa	-2758
▁ahuri	-2759
▁mekaa	-2760
▁ebinom	-2761
▁nneyɛe	-2762
▁ɔhɔhoɔ	-2763
▁anyinam	-2764
▁wobetumi	-2765
▁wɔatwerɛ	-2766
▁ɔbɔnefoɔ	-2767
▁kaldeafoɔ	-2768
lea	-2769
tam	-2770
tel	-2771
wɔka	-2772
▁bon	-2773
▁abaa	-2774
▁tutu	-2775
▁were	-2776
▁bɔfoɔ	-2777
▁frama	-2778
▁monka	-2779
▁nnuru	-2780
▁yɛmfa	-2781
▁mprɛnsa	-2782
▁nsateaa	-2783
▁wɔakyerɛw	-2784
0.	-2785
funu	-2786
▁buo	-2787
▁ita	-2788
▁tea	-2789
sɛdeɛ	-2790
▁adie	-2791
▁roma	-2792
▁ɔyɛe	-2793
▁abɔde	-2794
▁yenni	-2795
▁ɔbɔfo	-2796
▁ɔyɛeɛ	-2797
▁merebɛ	-2798
▁asomafo	-2799
▁galilea	-2800
▁nokwasɛm	-2801
faa	-2802
▁:3	-2803
Biri	-2804
▁don	-2805
▁ɛha	-2806
rifoɔ	-2807
▁huru	-2808
▁mayi	-2809
▁mpia	-2810
▁serɛ	-2811
▁suaa	-2812
▁mpaeɛ	-2813
▁anomaa	-2814
▁mmusuo	-2815
▁amorifoɔ	-2816
tom	-2817
▁lah	-2818
▁yea	-2819
▁atew	-2820
▁nsan	-2821
▁ahwie	-2822
▁dɔteɛ	-2823
▁fasuo	-2824
▁kɔbea	-2825
▁asotwe	-2826
▁atease	-2827
▁ɔbotan	-2828
▁teaseɛnam	-2829
nh	-2830
bisa	-2831
easa	-2832
enaa	-2833
ɛnnɛ	-2834
ɛwom	-2835
▁fan	-2836
rante	-2837
▁aduo	-2838
▁tane	-2839
▁anhyɛ	-2840
▁bereɛ	-2841
▁betel	-2842
▁difoɔ	-2843
▁wɔabɔ	-2844
▁akofoɔ	-2845
▁eleasa	-2846
▁hebron	-2847
▁wonnim	-2848
▁wɔtete	-2849
entensoɔ	-2850
▁otumfoɔ	-2851
▁mpofirim	-2852
▁mpanimfie	-2853
▁ntentensoɔ	-2854
ah	-2855
nna	-2856
pem	-2857
som	-2858
wee	-2859
ɛhɔ	-2860
▁dam	-2861
▁ebi	-2862
▁him	-2863
▁pɛe	-2864
▁row	-2865
bisaa	-2866
▁amum	-2867
▁wobu	-2868
▁wɔma	-2869
▁botae	-2870
▁nsuro	-2871
▁afenaa	-2872
▁ahiafo	-2873
▁yafunu	-2874
▁akraman	-2875
▁animtia	-2876
▁makyerɛ	-2877
▁misraimfoɔ	-2878
▁L	-2879
▁koɔ	-2880
▁mae	-2881
▁mfɛ	-2882
▁oti	-2883
▁ruu	-2884
▁siw	-2885
petro	-2886
▁asɛn	-2887
▁befi	-2888
▁mate	-2889
▁akwaa	-2890
▁rante	-2891
▁somfo	-2892
▁tefoɔ	-2893
▁wanka	-2894
▁yadeɛ	-2895
▁abɔdeɛ	-2896
▁ahyɛde	-2897
▁kɛseyɛ	-2898
▁mmabaa	-2899
▁odiyifo	-2900
▁ɔhwehwɛ	-2901
ter	-2902
ɔka	-2903
meka	-2904
onto	-2905
▁ger	-2906
▁has	-2907
▁lam	-2908
▁nia	-2909
▁nin	-2910
▁num	-2911
▁rew	-2912
▁rɔm	-2913
▁ɛko	-2914
▁afuo	-2915
▁deɛn	-2916
▁aniwu	-2917
▁mekɔɔ	-2918
▁mpoma	-2919
▁wɔtee	-2920
▁abrabɔ	-2921
▁daadaa	-2922
▁midian	-2923
▁yɛbɛyɛ	-2924
▁ahengua	-2925
▁asetena	-2926
teneneeni	-2927
▁asɛmmɔne	-2928
ob	-2929
don	-2930
kar	-2931
kem	-2932
difo	-2933
meda	-2934
rado	-2935
siam	-2936
ɔden	-2937
▁apɛ	-2938
▁ɔpe	-2939
▁abia	-2940
▁bɛda	-2941
▁hyee	-2942
▁wɔba	-2943
▁yeri	-2944
▁yɛeɛ	-2945
▁yɛpɛ	-2946
▁bɛkaa	-2947
▁esiam	-2948
▁nwunu	-2949
▁odwan	-2950
▁sekem	-2951
▁ɛberɛ	-2952
▁hyerɛn	-2953
▁mmasoɔ	-2954
▁ntonto	-2955
▁ɔtenaa	-2956
▁aduosia	-2957
▁mfimfini	-2958
▁ɔteneneeni	-2959
nee	-2960
boaa	-2961
▁bar	-2962
▁dab	-2963
▁lek	-2964
▁ohi	-2965
▁tio	-2966
banon	-2967
raefo	-2968
▁kaeɛ	-2969
▁asefo	-2970
▁hyɛne	-2971
▁suban	-2972
▁amrado	-2973
▁denden	-2974
▁merema	-2975
▁ohiani	-2976
▁ahemfie	-2977
▁lebanon	-2978
▁8	-2979
kai	-2980
nsu	-2981
hwan	-2982
siee	-2983
tinn	-2984
inwii	-2985
▁nkaa	-2986
▁nyin	-2987
▁otwa	-2988
▁ahunu	-2989
▁gyaee	-2990
▁mabrɛ	-2991
▁mommɔ	-2992
▁mpema	-2993
▁sakra	-2994
▁wɔhwɛ	-2995
▁ɔsɔre	-2996
anuanom	-2997
kyerɛma	-2998
▁ahanum	-2999
▁nkurow	-3000
▁ɔhunuu	-3001
▁pintinn	-3002
▁akoradeɛ	-3003
▁nnipadɔm	-3004
▁adwennini	-3005
▁adwumayɛfo	-3006
abu	-3007
akyi	-3008
elek	-3009
leam	-3010
▁sub	-3011
▁waa	-3012
▁abim	-3013
▁enee	-3014
▁hada	-3015
▁Kwame	-3016
▁ahene	-3017
▁anana	-3018
▁petee	-3019
▁woyɛɛ	-3020
▁wɔsom	-3021
▁wɔtoo	-3022
▁ɔsane	-3023
▁ɛtene	-3024
▁bileam	-3025
▁mmorɔn	-3026
▁mommma	-3027
▁wɔahyɛ	-3028
▁kɔtenaa	-3029
▁mmarato	-3030
▁siesiee	-3031
▁wɔahunu	-3032
▁abimelek	-3033
▁odwennini	-3034
▁nantwinini	-3035
▁nsɛnkyerɛnne	-3036
nɔ	-3037
doo	-3038
moa	-3039
▁ɛm	-3040
▁hwa	-3041
▁kia	-3042
▁atwe	-3043
▁reho	-3044
▁sani	-3045
▁sede	-3046
▁sraa	-3047
▁wabɔ	-3048
▁ɔgye	-3049
▁akorɔ	-3050
▁akutu	-3051
▁boase	-3052
▁dwiri	-3053
▁nkɔsi	-3054
▁rekyi	-3055
▁wodii	-3056
▁wogye	-3057
▁wɔtɔn	-3058
▁furaefo	-3059
▁ketewaa	-3060
▁ponkɛseɛ	-3061
▁N	-3062
boo	-3063
ete	-3064
hem	-3065
▁Ne	-3066
▁un	-3067
anim	-3068
▁hwi	-3069
▁koo	-3070
▁mot	-3071
▁onh	-3072
tompo	-3073
▁nhye	-3074
▁owui	-3075
▁rane	-3076
▁abura	-3077
▁nnwin	-3078
▁teɛɛm	-3079
▁akodeɛ	-3080
▁baanan	-3081
▁wobedi	-3082
▁ahansia	-3083
▁nnɔbaeɛ	-3084
▁kanaanfoɔ	-3085
▁nkontompo	-3086
ner	-3087
tɛn	-3088
wea	-3089
▁non	-3090
▁rae	-3091
ɔhene	-3092
▁buae	-3093
▁dome	-3094
▁gyeɛ	-3095
▁nnyɛ	-3096
▁ntia	-3097
▁wayi	-3098
▁wohu	-3099
lisifo	-3100
▁abner	-3101
▁abusu	-3102
▁wɔtaa	-3103
▁abodoo	-3104
▁aboson	-3105
▁atwene	-3106
▁ayamye	-3107
▁nantwi	-3108
▁nuabaa	-3109
▁onyame	-3110
▁wobɛma	-3111
▁siriafoɔ	-3112
▁R	-3113
dwe	-3114
amfa	-3115
oboo	-3116
wiem	-3117
ɛbɛyɛ	-3118
▁forɔ	-3119
▁mɛbɔ	-3120
▁nnam	-3121
▁sara	-3122
▁ɔnka	-3123
▁ɔsɛe	-3124
▁mfutu	-3125
▁mɛsan	-3126
▁nhunu	-3127
▁nkron	-3128
▁nwera	-3129
▁tofoɔ	-3130
▁woama	-3131
▁wɔama	-3132
▁wɔhye	-3133
▁abupɛn	-3134
▁bobesa	-3135
▁mehyɛɛ	-3136
▁ogyina	-3137
▁tumfoɔ	-3138
▁wɔsiee	-3139
▁ɛkorɔn	-3140
▁abooboo	-3141
▁boasetɔ	-3142
▁abansoro	-3143
▁6	-3144
▁Me	-3145
▁nɔ	-3146
▁oh	-3147
▁ɔt	-3148
▁awi	-3149
▁mor	-3150
▁sui	-3151
▁bɛfa	-3152
▁meso	-3153
▁nsen	-3154
▁owuo	-3155
▁tiro	-3156
▁ɛmaa	-3157
▁ohoni	-3158
▁wonya	-3159
▁bɛsane	-3160
▁mehunuu	-3161
▁kyekyeree	-3162
▁tɛkyerɛma	-3163
bim	-3164
koa	-3165
ɔbɛ	-3166
kura	-3167
saia	-3168
▁hem	-3169
▁hes	-3170
▁mar	-3171
▁nue	-3172
dekai	-3173
▁abaw	-3174
▁huhu	-3175
nhyira	-3176
▁abubu	-3177
▁anwea	-3178
▁atorɔ	-3179
▁moayɛ	-3180
▁ntwɛn	-3181
▁wagye	-3182
▁wɔafa	-3183
▁ɛhyeɛ	-3184
▁akyere	-3185
▁dennen	-3186
▁mahunu	-3187
▁yesaia	-3188
▁mmorɔno	-3189
▁ɛrenkyɛ	-3190
▁aberante	-3191
▁israelfo	-3192
▁mordekai	-3193
ce	-3194
ee	-3195
▁x	-3196
awo	-3197
duu	-3198
mas	-3199
▁uu	-3200
▁soo	-3201
▁wɔm	-3202
masko	-3203
▁hiob	-3204
▁ɔboɔ	-3205
▁ɔsii	-3206
▁abram	-3207
▁menam	-3208
▁sofoɔ	-3209
▁wɔkae	-3210
ɔbarima	-3211
▁yeriko	-3212
▁ahwiesa	-3213
▁damasko	-3214
▁kerubim	-3215
▁kɔduruu	-3216
▁mfuturo	-3217
▁ahurisie	-3218
▁kɔkyeree	-3219
▁4	-3220
nka	-3221
▁asɔ	-3222
▁rea	-3223
▁rot	-3224
karia	-3225
▁ahun	-3226
▁hare	-3227
▁hwɛe	-3228
▁meba	-3229
▁medɔ	-3230
▁ahasa	-3231
▁fapem	-3232
▁hwere	-3233
▁kwaeɛ	-3234
▁mehyɛ	-3235
▁moren	-3236
▁nkane	-3237
▁simon	-3238
▁tamfo	-3239
▁ɔsɛeɛ	-3240
▁wɔrebɛ	-3241
▁sakaria	-3242
▁sedekia	-3243
▁nnwinneɛ	-3244
▁nnɔmmarima	-3245
▁kyerɛkyerɛɛ	-3246
▁ɔfo	-3247
▁koko	-3248
▁nane	-3249
▁nufo	-3250
▁osuo	-3251
▁rima	-3252
▁tuaa	-3253
▁anant	-3254
▁basan	-3255
▁bɛhwɛ	-3256
▁kyiri	-3257
▁mmisa	-3258
▁nsusu	-3259
▁ahyira	-3260
▁ɔbɔfoɔ	-3261
▁nnwanten	-3262
▁wɔkyeree	-3263
ll	-3264
naa	-3265
nua	-3266
▁or	-3267
mael	-3268
▁amm	-3269
▁mis	-3270
asase	-3271
▁atuu	-3272
▁bata	-3273
▁ntew	-3274
▁pore	-3275
▁reko	-3276
▁sera	-3277
▁aburo	-3278
▁ahyɛn	-3279
▁amapa	-3280
▁ewiem	-3281
▁horow	-3282
▁memma	-3283
▁munim	-3284
▁yɛayɛ	-3285
▁ɔbɛfa	-3286
▁ismael	-3287
▁wɔbɛfa	-3288
▁agyapade	-3289
dok	-3290
▁Ma	-3291
▁ll	-3292
adua	-3293
gyaa	-3294
koam	-3295
▁ɛbɔ	-3296
▁abom	-3297
▁amen	-3298
▁buee	-3299
▁fari	-3300
▁kafo	-3301
▁mabɔ	-3302
▁mopɛ	-3303
▁nnkɔ	-3304
▁ruwa	-3305
▁ester	-3306
▁haman	-3307
▁kɔbɔɔ	-3308
▁menim	-3309
▁nsane	-3310
▁nturo	-3311
▁sadok	-3312
▁sukɔm	-3313
▁tadua	-3314
▁tania	-3315
▁wedeɛ	-3316
▁ɔforo	-3317
▁ɔrebɛ	-3318
▁ahanan	-3319
▁akɔnnɔ	-3320
▁asodie	-3321
▁kokoam	-3322
▁mefiri	-3323
▁wɔagye	-3324
▁otitire	-3325
▁awerɛhoɔ	-3326
▁farisifo	-3327
▁israelhene	-3328
▁Ɔ	-3329
suu	-3330
▁atɛ	-3331
▁yuu	-3332
lehem	-3333
pɔnna	-3334
▁ntie	-3335
▁totɔ	-3336
▁wodɔ	-3337
▁yira	-3338
▁apiti	-3339
▁atene	-3340
▁laban	-3341
▁remma	-3342
▁tifoɔ	-3343
▁wokum	-3344
▁yenim	-3345
reneefo	-3346
▁boaboa	-3347
▁bɛdane	-3348
▁wumfoɔ	-3349
▁wɔbɛma	-3350
yansafoɔ	-3351
▁awɛmfoɔ	-3352
▁boaboaa	-3353
▁gyidifo	-3354
▁moahunu	-3355
▁betlehem	-3356
▁nnipakuw	-3357
▁subonhwa	-3358
▁atreneefo	-3359
▁anyansafoɔ	-3360
dwa	-3361
hel	-3362
lek	-3363
mene	-3364
onoo	-3365
rode	-3366
▁dwa	-3367
▁ham	-3368
▁pea	-3369
▁tro	-3370
▁kari	-3371
▁mpen	-3372
▁ogua	-3373
▁safo	-3374
▁seru	-3375
▁ɛhyɛ	-3376
▁adihɔ	-3377
▁badwa	-3378
▁meyii	-3379
▁wonam	-3380
▁herode	-3381
▁hoahoa	-3382
▁obegye	-3383
▁frankaa	-3384
▁ananafoɔ	-3385
▁babelhene	-3386
▁ɔbabarima	-3387
00	-3388
boɔ	-3389
tuu	-3390
▁obo	-3391
▁oku	-3392
tadeɛ	-3393
yiraa	-3394
▁bala	-3395
▁kwaa	-3396
▁moma	-3397
▁mɛto	-3398
▁yiri	-3399
▁yoma	-3400
▁ɛsom	-3401
▁agyaa	-3402
▁anwan	-3403
▁yesua	-3404
▁yosia	-3405
▁ɔbɛdi	-3406
▁mmepɔw	-3407
▁tiatia	-3408
▁fononoo	-3409
▁hyehyɛɛ	-3410
▁wɔantie	-3411
▁asɔfotadeɛ	-3412
▁mmɔborɔhunu	-3413
as	-3414
fua	-3415
pɔw	-3416
perɛ	-3417
▁sai	-3418
awofo	-3419
▁bunu	-3420
▁kita	-3421
▁mɛyi	-3422
▁nsie	-3423
▁wiri	-3424
▁wɔbu	-3425
▁apete	-3426
▁fidie	-3427
▁hebri	-3428
▁hwene	-3429
▁kataa	-3430
▁kusuu	-3431
▁nafoɔ	-3432
▁wonoo	-3433
▁wosow	-3434
▁adɔɔso	-3435
▁atɔfoɔ	-3436
▁fiefoɔ	-3437
▁hyiraa	-3438
▁nnedua	-3439
▁ntwemu	-3440
▁obenya	-3441
▁ɔfirii	-3442
▁merehyɛ	-3443
▁meremfa	-3444
▁mpaperɛ	-3445
▁ahosɛpɛw	-3446
kyerɛkyerɛ	-3447
▁ntotorobɛnto	-3448
mmo	-3449
▁afɛ	-3450
▁dee	-3451
▁kab	-3452
▁mɛn	-3453
▁sar	-3454
mammɔ	-3455
soade	-3456
▁abua	-3457
▁iase	-3458
▁lkia	-3459
▁nkan	-3460
▁raba	-3461
▁sema	-3462
▁ɛwoɔ	-3463
▁aforo	-3464
▁ahotɔ	-3465
▁wɔnte	-3466
▁ahunta	-3467
▁ahɔhoɔ	-3468
▁amalek	-3469
▁kɔnnua	-3470
▁ntwene	-3471
▁ahuhudeɛ	-3472
▁anisoade	-3473
▁adwamammɔ	-3474
▁ɔsorosoro	-3475
▁7	-3476
sre	-3477
lato	-3478
wiri	-3479
▁bɔn	-3480
▁res	-3481
▁ris	-3482
ahome	-3483
emmaa	-3484
▁behu	-3485
▁hane	-3486
▁mabɛ	-3487
▁mmma	-3488
▁pira	-3489
▁yebu	-3490
abusua	-3491
▁kwata	-3492
▁ɛsono	-3493
▁abosom	-3494
▁adwane	-3495
▁asaria	-3496
▁mmɔfra	-3497
▁wɔsɔre	-3498
▁abosome	-3499
▁nufosuo	-3500
▁tentene	-3501
▁ɔhemmaa	-3502
▁anibereɛ	-3503
▁rehoboam	-3504
▁yansafoɔ	-3505
▁U	-3506
▁ẽ	-3507
aho	-3508
anaa	-3509
traa	-3510
wobɛ	-3511
▁fuo	-3512
▁kur	-3513
sreel	-3514
▁akra	-3515
▁akua	-3516
▁anwu	-3517
▁gide	-3518
▁kyɛɛ	-3519
▁mfuo	-3520
▁dunum	-3521
▁gibea	-3522
▁kabii	-3523
▁nkoko	-3524
▁pasaa	-3525
▁rahel	-3526
▁renka	-3527
▁sidon	-3528
▁yɛren	-3529
▁mmakan	-3530
▁obisaa	-3531
▁pilato	-3532
▁rekorɔ	-3533
▁simeon	-3534
▁hyiadan	-3535
▁nkyekyɛ	-3536
▁wobegye	-3537
▁yesreel	-3538
▁nkotodwe	-3539
▁nkwagyeɛ	-3540
oo	-3541
sai	-3542
▁ai	-3543
▁ros	-3544
▁twɛ	-3545
momfa	-3546
mutam	-3547
rɛfoɔ	-3548
ɔnsɔn	-3549
▁atim	-3550
▁huam	-3551
▁kɔma	-3552
▁wuma	-3553
▁wɔsɔ	-3554
▁yoas	-3555
▁ɛnni	-3556
▁asane	-3557
▁duane	-3558
▁mefrɛ	-3559
▁nnepa	-3560
▁nyina	-3561
▁wanya	-3562
▁wɔabu	-3563
▁yudea	-3564
▁ɛntɛn	-3565
▁amaneɛ	-3566
▁monnyɛ	-3567
▁nkokoɔ	-3568
▁wonnye	-3569
▁ɔbisaa	-3570
▁ɔkorow	-3571
▁ahyehyɛ	-3572
▁nkrante	-3573
▁ahodwiri	-3574
▁ntwamutam	-3575
▁ɔtwerɛfoɔ	-3576
▁anantwinini	-3577
▁misraimhene	-3578
▁yerusalemfoɔ	-3579
pi	-3580
▁õ	-3581
nyɛ	-3582
tɔeɛ	-3583
▁lea	-3584
▁wea	-3585
dɔɔso	-3586
▁onua	-3587
▁ɔbrɛ	-3588
▁nkete	-3589
▁simei	-3590
▁sodom	-3591
▁yisai	-3592
▁ɔgyaa	-3593
▁adesoa	-3594
▁akumaa	-3595
▁momono	-3596
▁nkamfo	-3597
▁rekyie	-3598
▁wɔhyɛɛ	-3599
▁wɔsane	-3600
▁abotire	-3601
▁ntotɔeɛ	-3602
▁akyidifo	-3603
▁dwetɛbena	-3604
buu	-3605
▁us	-3606
hina	-3607
homm	-3608
toma	-3609
▁ele	-3610
▁guo	-3611
▁ina	-3612
▁ɛsɔ	-3613
rɔkye	-3614
ɛberɛ	-3615
▁bɛte	-3616
▁fire	-3617
▁kiti	-3618
▁mane	-3619
▁meeɛ	-3620
▁nsum	-3621
▁oyii	-3622
▁torɔ	-3623
asuafo	-3624
israel	-3625
merika	-3626
▁afunu	-3627
▁akora	-3628
▁apɛde	-3629
▁dunan	-3630
▁sɛnee	-3631
▁wohuu	-3632
▁wɔate	-3633
▁ɔhunu	-3634
▁ɛbere	-3635
▁adekye	-3636
▁akodie	-3637
▁akomam	-3638
▁mfasoɔ	-3639
▁mmuada	-3640
▁nkanea	-3641
▁afieboa	-3642
▁ahonhom	-3643
▁bɛkyerɛ	-3644
▁anidasoɔ	-3645
▁totorobɛnto	-3646
lon	-3647
tade	-3648
wɔbɛ	-3649
▁fuu	-3650
ennen	-3651
ronya	-3652
ɔyɛfo	-3653
▁ahas	-3654
▁hwam	-3655
▁kyɛn	-3656
▁rari	-3657
▁rebe	-3658
▁tade	-3659
▁teɛm	-3660
▁balak	-3661
▁bɛkyɛ	-3662
▁ennen	-3663
▁wɔakɔ	-3664
hommɔne	-3665
▁bɛsɔre	-3666
▁mehunu	-3667
▁bɛhyiaa	-3668
▁montena	-3669
▁wɔfirii	-3670
▁asorɔkye	-3671
▁safohene	-3672
▁aduɔwɔtwe	-3673
▁amumɔyɛfo	-3674
▁ahohommɔne	-3675
▁M	-3676
fta	-3677
gal	-3678
nai	-3679
▁Na	-3680
suro	-3681
▁ena	-3682
▁gat	-3683
▁ire	-3684
▁ɔyi	-3685
ftali	-3686
▁masi	-3687
▁mesu	-3688
▁pasa	-3689
▁dubaa	-3690
▁dweti	-3691
▁kaesa	-3692
▁kronn	-3693
▁mispa	-3694
▁munni	-3695
▁natan	-3696
▁wotie	-3697
▁yɛnam	-3698
▁bɛhunu	-3699
▁mmanin	-3700
▁mubehu	-3701
▁rannaa	-3702
▁wɔtumi	-3703
▁adehunu	-3704
▁asoɔden	-3705
▁naftali	-3706
▁wiinwii	-3707
▁wɔduruu	-3708
▁nnapɔnna	-3709
▁ateasefoɔ	-3710
▁atemmufoɔ	-3711
▁dwetikɛseɛ	-3712
ut	-3713
aama	-3714
beon	-3715
lgal	-3716
sika	-3717
sote	-3718
▁des	-3719
▁set	-3720
▁sow	-3721
▁sur	-3722
▁unu	-3723
▁ɔtr	-3724
▁aten	-3725
▁butu	-3726
▁fowa	-3727
▁gyan	-3728
▁hasa	-3729
▁nnni	-3730
▁wane	-3731
▁apini	-3732
▁hyɛeɛ	-3733
▁kyini	-3734
▁pinii	-3735
▁sinai	-3736
▁wɔabɛ	-3737
▁wɔmmɔ	-3738
▁wɔyii	-3739
▁ɔsoma	-3740
sotefoɔ	-3741
▁amaama	-3742
▁baason	-3743
▁buruwa	-3744
▁gibeon	-3745
▁gilgal	-3746
▁yakobo	-3747
▁ɔtemmu	-3748
▁agyaadwo	-3749
▁asɔrefie	-3750
▁bɔneyɛfo	-3751
▁hwanhwam	-3752
▁wamamfoɔ	-3753
▁ɔtreneeni	-3754
▁anwanwadeɛ	-3755
▁gyinagyina	-3756
▁apɔnkɔsotefoɔ	-3757
pasa	-3758
rɔfo	-3759
sere	-3760
▁bie	-3761
▁efa	-3762
▁poo	-3763
▁yeɛ	-3764
guare	-3765
paulo	-3766
▁asau	-3767
▁bɛko	-3768
▁kran	-3769
▁kyea	-3770
▁lipo	-3771
▁nnwa	-3772
▁nwan	-3773
▁rama	-3774
▁wɔyi	-3775
▁aseda	-3776
▁hadad	-3777
▁kyera	-3778
▁menni	-3779
▁raase	-3780
▁yiraa	-3781
▁ɔreba	-3782
▁nkumaa	-3783
▁wohunu	-3784
▁wɔamfa	-3785
▁ɛdɔɔso	-3786
▁adwaman	-3787
▁bapɔmma	-3788
▁nkɔnsɔn	-3789
▁ntaaboɔ	-3790
▁woahunu	-3791
▁wɔtenaa	-3792
▁yansafo	-3793
▁pasapasa	-3794
mun	-3795
dada	-3796
▁mah	-3797
▁nen	-3798
▁omo	-3799
▁riw	-3800
▁ɔnn	-3801
danee	-3802
▁baan	-3803
▁bibi	-3804
▁bɔfo	-3805
▁bɛyi	-3806
▁silo	-3807
▁uria	-3808
tenten	-3809
yudafo	-3810
▁dɔfoɔ	-3811
▁raman	-3812
▁susuu	-3813
▁wɔtuu	-3814
▁yehoa	-3815
▁yifoɔ	-3816
▁yɛfoɔ	-3817
▁ahoɔfɛ	-3818
▁amasia	-3819
▁benaia	-3820
▁gideon	-3821
▁mekasa	-3822
▁mommra	-3823
▁wɔnnya	-3824
▁ayitoma	-3825
▁kɔhyiaa	-3826
▁wɔantumi	-3827
▁yankopɔn	-3828
▁aberanteɛ	-3829
▁ahonyadeɛ	-3830
▁abantenten	-3831
hon	-3832
▁og	-3833
defo	-3834
wiei	-3835
▁soɛ	-3836
bulon	-3837
▁apaa	-3838
▁beer	-3839
▁doma	-3840
▁duan	-3841
▁hɔho	-3842
▁nafo	-3843
▁seir	-3844
▁ɔnan	-3845
▁hamat	-3846
▁kiria	-3847
▁kɔkaa	-3848
▁nohoa	-3849
▁rifoɔ	-3850
▁sosɛm	-3851
▁samson	-3852
▁semaia	-3853
▁woahyɛ	-3854
ustralia	-3855
▁abɔnefo	-3856
▁ahanson	-3857
▁bɔntene	-3858
▁gyegyee	-3859
▁pradada	-3860
▁sebulon	-3861
▁mfitiaseɛ	-3862
▁kronkronni	-3863
:3	-3864
leb	-3865
umm	-3866
▁ao	-3867
▁mri	-3868
▁per	-3869
yadeɛ	-3870
▁aane	-3871
▁ammɛ	-3872
▁inti	-3873
▁iram	-3874
▁mafa	-3875
▁muhu	-3876
▁nsom	-3877
▁resi	-3878
▁rɔni	-3879
▁yane	-3880
▁ayeyɛ	-3881
▁huhuo	-3882
▁kaleb	-3883
▁kɔfaa	-3884
▁mpapo	-3885
▁owura	-3886
▁samoa	-3887
▁wahyɛ	-3888
▁wɔsii	-3889
▁ɔkumm	-3890
▁agyata	-3891
▁kɔnsɔn	-3892
▁muntie	-3893
▁nsɛsoɔ	-3894
▁wɔbɛdi	-3895
▁wɔkura	-3896
▁wɔnnim	-3897
▁wɔtena	-3898
▁ɔdanee	-3899
▁nnuhwam	-3900
▁ununkum	-3901
▁	-3902
a	-3903
n	-3904
e	-3905
o	-3906
m	-3907
ɛ	-3908
i	-3909
s	-3910
w	-3911
ɔ	-3912
y	-3913
u	-3914
r	-3915
k	-3916
b	-3917
d	-3918
h	-3919
t	-3920
f	-3921
.	-3922
p	-3923
g	-3924
l	-3925
M	-3926
A	-3927
?	-3928
,	-3929
S	-3930
N	-3931
'	-3932
Ɛ	-3933
K	-3934
á	-3935
W	-3936
Ɔ	-3937
B	-3938
Y	-3939
E	-3940
O	-3941
D	-3942
H	-3943
c	-3944
F	-3945
0	-3946
T	-3947
J	-3948
!	-3949
P	-3950
́	-3951
1	-3952
(	-3953
)	-3954
C	-3955
2	-3956
j	-3957
3	-3958
ũ	-3959
ã	-3960
G	-3961
"	-3962
’	-3963
/	-3964
v	-3965
:	-3966
I	-3967
-	-3968
z	-3969
5	-3970
9	-3971
V	-3972
L	-3973
x	-3974
R	-3975
8	-3976
6	-3977
ẽ	-3978
4	-3979
õ	-3980
U	-3981
7	-3982
ĩ	-3983
;	-3984
Ͻ	-3985
%	-3986
Z	-3987
q	-3988
ñ	-3989
\	-3990
°	-3991
Á	-3992
é	-3993
ü	-3994
č	-3995
ǎ	-3996
ͻ	-3997
‘	-3998
